{
  "version": "1.0",
  "truncation": null,
  "padding": null,
  "added_tokens": [
    {
      "id": 0,
      "content": "<pad>",
      "single_word": false,
      "lstrip": false,
      "rstrip": false,
      "normalized": false,
      "special": true
    },
    {
      "id": 1,
      "content": "<unk>",
      "single_word": false,
      "lstrip": false,
      "rstrip": false,
      "normalized": false,
      "special": true
    },
    {
      "id": 2,
      "content": "<bos>",
      "single_word": false,
      "lstrip": false,
      "rstrip": false,
      "normalized": false,
      "special": true
    },
    {
      "id": 3,
      "content": "<eos>",
      "single_word": false,
      "lstrip": false,
      "rstrip": false,
      "normalized": false,
      "special": true
    },
    {
      "id": 4,
      "content": "<mask>",
      "single_word": false,
      "lstrip": false,
      "rstrip": false,
      "normalized": false,
      "special": true
    },
    {
      "id": 5,
      "content": "<func>",
      "single_word": false,
      "lstrip": false,
      "rstrip": false,
      "normalized": false,
      "special": true
    },
    {
      "id": 6,
      "content": "<bb>",
      "single_word": false,
      "lstrip": false,
      "rstrip": false,
      "normalized": false,
      "special": true
    },
    {
      "id": 7,
      "content": "<var>",
      "single_word": false,
      "lstrip": false,
      "rstrip": false,
      "normalized": false,
      "special": true
    },
    {
      "id": 8,
      "content": "<const>",
      "single_word": false,
      "lstrip": false,
      "rstrip": false,
      "normalized": false,
      "special": true
    }
  ],
  "normalizer": null,
  "pre_tokenizer": {
    "type": "Whitespace"
  },
  "post_processor": {
    "type": "TemplateProcessing",
    "single": [
      {
        "SpecialToken": {
          "id": "<bos>",
          "type_id": 0
        }
      },
      {
        "Sequence": {
          "id": "A",
          "type_id": 0
        }
      },
      {
        "SpecialToken": {
          "id": "<eos>",
          "type_id": 0
        }
      }
    ],
    "pair": [
      {
        "Sequence": {
          "id": "A",
          "type_id": 0
        }
      },
      {
        "Sequence": {
          "id": "B",
          "type_id": 1
        }
      }
    ],
    "special_tokens": {
      "<bos>": {
        "id": "<bos>",
        "ids": [
          2
        ],
        "tokens": [
          "<bos>"
        ]
      },
      "<eos>": {
        "id": "<eos>",
        "ids": [
          3
        ],
        "tokens": [
          "<eos>"
        ]
      }
    }
  },
  "decoder": null,
  "model": {
    "type": "BPE",
    "dropout": null,
    "unk_token": "<unk>",
    "continuing_subword_prefix": null,
    "end_of_word_suffix": null,
    "fuse_unk": false,
    "byte_fallback": false,
    "ignore_merges": false,
    "vocab": {
      "<pad>": 0,
      "<unk>": 1,
      "<bos>": 2,
      "<eos>": 3,
      "<mask>": 4,
      "<func>": 5,
      "<bb>": 6,
      "<var>": 7,
      "<const>": 8,
      "!": 9,
      "\"": 10,
      "#": 11,
      "$": 12,
      "%": 13,
      "'": 14,
      "(": 15,
      ")": 16,
      "*": 17,
      "+": 18,
      ",": 19,
      "-": 20,
      ".": 21,
      "/": 22,
      "0": 23,
      "1": 24,
      "2": 25,
      "3": 26,
      "4": 27,
      "5": 28,
      "6": 29,
      "7": 30,
      "8": 31,
      "9": 32,
      ":": 33,
      ";": 34,
      "<": 35,
      "=": 36,
      ">": 37,
      "@": 38,
      "A": 39,
      "B": 40,
      "C": 41,
      "D": 42,
      "E": 43,
      "F": 44,
      "G": 45,
      "H": 46,
      "I": 47,
      "J": 48,
      "K": 49,
      "L": 50,
      "M": 51,
      "N": 52,
      "O": 53,
      "P": 54,
      "Q": 55,
      "R": 56,
      "S": 57,
      "T": 58,
      "U": 59,
      "V": 60,
      "W": 61,
      "X": 62,
      "Y": 63,
      "Z": 64,
      "[": 65,
      "]": 66,
      "_": 67,
      "a": 68,
      "b": 69,
      "c": 70,
      "d": 71,
      "e": 72,
      "f": 73,
      "g": 74,
      "h": 75,
      "i": 76,
      "j": 77,
      "k": 78,
      "l": 79,
      "m": 80,
      "n": 81,
      "o": 82,
      "p": 83,
      "q": 84,
      "r": 85,
      "s": 86,
      "t": 87,
      "u": 88,
      "v": 89,
      "w": 90,
      "x": 91,
      "y": 92,
      "z": 93,
      "{": 94,
      "}": 95,
      "un": 96,
      "unc": 97,
      "%.": 98,
      "func": 99,
      "tr": 100,
      "ptr": 101,
      "32": 102,
      "al": 103,
      "in": 104,
      "64": 105,
      "ar": 106,
      "IN": 107,
      "_IN": 108,
      "_INT": 109,
      "\"@": 110,
      "re": 111,
      "i64": 112,
      "%.<": 113,
      "no": 114,
      "i32": 115,
      ".<": 116,
      "NS": 117,
      "_C": 118,
      "ONS": 119,
      "_CONS": 120,
      "_CONST": 121,
      "AT": 122,
      "FL": 123,
      "OAT": 124,
      "FLOAT": 125,
      "FLOAT_CONST": 126,
      "er": 127,
      "var": 128,
      ">.": 129,
      "oa": 130,
      "%\"@": 131,
      "ex": 132,
      "ins": 133,
      "ert": 134,
      "insert": 135,
      "to": 136,
      "i1": 137,
      "E_INT": 138,
      "GE_INT": 139,
      "sr": 140,
      "ED": 141,
      "MED": 142,
      "MED_INT": 143,
      "sroa": 144,
      "me": 145,
      "</": 146,
      "func1": 147,
      "all": 148,
      "el": 149,
      ">,": 150,
      "28": 151,
      "AR": 152,
      "LAR": 153,
      "LARGE_INT": 154,
      "gn": 155,
      "ac": 156,
      "ad": 157,
      "as": 158,
      "ll": 159,
      "i8": 160,
      "de": 161,
      "ali": 162,
      "ab": 163,
      "ca": 164,
      "align": 165,
      "mas": 166,
      "mask": 167,
      "ext": 168,
      "lab": 169,
      "label": 170,
      "var0": 171,
      "hi": 172,
      "ge": 173,
      "add": 174,
      "act": 175,
      "ed": 176,
      "tract": 177,
      "extract": 178,
      "masked": 179,
      "call": 180,
      "fca": 181,
      "ur": 182,
      "le": 183,
      "i128": 184,
      "\":": 185,
      "16": 186,
      "mp": 187,
      "lo": 188,
      "or": 189,
      "ame": 190,
      "name": 191,
      "31": 192,
      "ds": 193,
      "nu": 194,
      "get": 195,
      "pre": 196,
      "func2": 197,
      "non": 198,
      "int": 199,
      "def": 200,
      "preds": 201,
      "27": 202,
      "\",": 203,
      "var1": 204,
      "st": 205,
      "it": 206,
      "br": 207,
      "loa": 208,
      "loc": 209,
      "local": 210,
      "load": 211,
      "ret": 212,
      "d_": 213,
      "p27": 214,
      "addr": 215,
      "named_": 216,
      "unnamed_": 217,
      "unnamed_addr": 218,
      "_unnamed_addr": 219,
      "local_unnamed_addr": 220,
      "on": 221,
      "noun": 222,
      "trunc": 223,
      "mem": 224,
      "],": 225,
      "HU": 226,
      "HUGE_INT": 227,
      "null": 228,
      "ft": 229,
      "shi": 230,
      "shift": 231,
      "func3": 232,
      "at": 233,
      "nonnull": 234,
      "urn": 235,
      "return": 236,
      "ue": 237,
      "10": 238,
      "val": 239,
      "value": 240,
      "nt": 241,
      "func4": 242,
      "a1": 243,
      "ic": 244,
      "ele": 245,
      "128": 246,
      "icmp": 247,
      "cl": 248,
      "fre": 249,
      "free": 250,
      "are": 251,
      "decl": 252,
      "declare": 253,
      "sm": 254,
      "tra": 255,
      "i16": 256,
      "_tra": 257,
      "sto": 258,
      "store": 259,
      "ut": 260,
      "tri": 261,
      "tar": 262,
      "target": 263,
      "win": 264,
      "tmp": 265,
      "all_tra": 266,
      "small_tra": 267,
      "small_train": 268,
      "toptr": 269,
      "inttoptr": 270,
      "nofree": 271,
      "zext": 272,
      "ti": 273,
      "il": 274,
      "ta": 275,
      "tail": 276,
      "nounwin": 277,
      "nounwind": 278,
      "ment": 279,
      "getele": 280,
      "mentptr": 281,
      "getelementptr": 282,
      "nc": 283,
      "is": 284,
      "ory": 285,
      "memory": 286,
      "30": 287,
      "func0": 288,
      "wi": 289,
      "llreturn": 290,
      "willreturn": 291,
      "..": 292,
      "func5": 293,
      "sy": 294,
      "nosy": 295,
      "nosync": 296,
      "undef": 297,
      "var2": 298,
      "12": 299,
      "ss": 300,
      "ay": 301,
      "15": 302,
      "exit": 303,
      "i3": 304,
      "read": 305,
      "not": 306,
      "sh": 307,
      "eq": 308,
      "ce": 309,
      "13": 310,
      "func6": 311,
      "none": 312,
      "11": 313,
      "cf": 314,
      "sw": 315,
      "%<": 316,
      "so": 317,
      "nuw": 318,
      "ack": 319,
      "17": 320,
      "nal": 321,
      "ernal": 322,
      "external": 323,
      "24": 324,
      "shl": 325,
      "80": 326,
      "nsw": 327,
      "func7": 328,
      "vm": 329,
      "llvm": 330,
      "tion": 331,
      "86": 332,
      "thi": 333,
      "this": 334,
      "ust": 335,
      "Mo": 336,
      "ress": 337,
      "At": 338,
      "Func": 339,
      "trs": 340,
      "Attrs": 341,
      "Function": 342,
      "insertvalue": 343,
      "ist": 344,
      "extractvalue": 345,
      "func8": 346,
      "ter": 347,
      "allter": 348,
      "geist": 349,
      "alltergeist": 350,
      "ine": 351,
      "ro": 352,
      "falltergeist": 353,
      "func9": 354,
      "bb": 355,
      "se": 356,
      "14": 357,
      "fi": 358,
      "gnu": 359,
      "id": 360,
      "26": 361,
      "es": 362,
      "phi": 363,
      "trib": 364,
      "attrib": 365,
      "utes": 366,
      "attributes": 367,
      "pro": 368,
      "ule": 369,
      "dat": 370,
      "out": 371,
      "lin": 372,
      "urce": 373,
      "source": 374,
      "file": 375,
      "_file": 376,
      "dule": 377,
      "Module": 378,
      "trip": 379,
      "ID": 380,
      "alay": 381,
      "define": 382,
      "datalay": 383,
      "source_file": 384,
      "ModuleID": 385,
      "triple": 386,
      "datalayout": 387,
      "source_filename": 388,
      "i386": 389,
      "ux": 390,
      "\".": 391,
      "pc": 392,
      "f64": 393,
      "n8": 394,
      "IR": 395,
      "yC": 396,
      "'/": 397,
      "Bin": 398,
      "S128": 399,
      "f80": 400,
      "aryC": 401,
      "orp": 402,
      "p270": 403,
      "p271": 404,
      "p272": 405,
      "linux": 406,
      "\"./": 407,
      "BinaryC": 408,
      "BinaryCorp": 409,
      "oint": 410,
      "dis": 411,
      "joint": 412,
      "disjoint": 413,
      "prog": 414,
      "must": 415,
      "progress": 416,
      "mustprogress": 417,
      "oid": 418,
      "void": 419,
      "func10": 420,
      "rec": 421,
      "p0": 422,
      "recur": 423,
      "norecur": 424,
      "norecurse": 425,
      "ure": 426,
      "pt": 427,
      "capt": 428,
      "capture": 429,
      "nocapture": 430,
      "),": 431,
      "var3": 432,
      "59": 433,
      "noundef": 434,
      "fe": 435,
      "lob": 436,
      "glob": 437,
      "global": 438,
      "41": 439,
      "rit": 440,
      "rite": 441,
      "write": 442,
      "li": 443,
      "func12": 444,
      "arg": 445,
      "po": 446,
      "func11": 447,
      "allo": 448,
      "alloca": 449,
      "git": 450,
      "ison": 451,
      "poison": 452,
      "able": 453,
      "back": 454,
      "nocall": 455,
      "nocallback": 456,
      "77": 457,
      "func13": 458,
      "nd": 459,
      "time": 460,
      "func14": 461,
      "25": 462,
      "fetime": 463,
      "lifetime": 464,
      "ptrto": 465,
      "ptrtoint": 466,
      "a2": 467,
      ">)": 468,
      "var4": 469,
      "con": 470,
      "617": 471,
      "func15": 472,
      "5b": 473,
      "..<": 474,
      "19": 475,
      "a6": 476,
      "noreturn": 477,
      "dd": 478,
      "e0": 479,
      "PK": 480,
      "argmem": 481,
      "pack": 482,
      "unpack": 483,
      "18": 484,
      "031": 485,
      "5A": 486,
      "O3": 487,
      "4110": 488,
      "Ra": 489,
      "b59": 490,
      "be0": 491,
      "c4110": 492,
      "f26": 493,
      "jRa": 494,
      "zPK": 495,
      "ay5A": 496,
      "cfbe0": 497,
      "77f26": 498,
      "6175b": 499,
      "a6b59": 500,
      "dd031": 501,
      "c4110cfbe0": 502,
      "zPKay5A": 503,
      "77f266175b": 504,
      "a6b59dd031": 505,
      "c4110cfbe0a6b59dd031": 506,
      "zPKay5AjRa": 507,
      "77f266175bcf": 508,
      "c4110cfbe0a6b59dd03177f266175bcf": 509,
      "func16": 510,
      "i4": 511,
      "23": 512,
      "pe": 513,
      "var5": 514,
      "20": 515,
      "sta": 516,
      "44": 517,
      "func17": 518,
      "oun": 519,
      ".)": 520,
      "...)": 521,
      "29": 522,
      "33": 523,
      "48": 524,
      "ach": 525,
      "45": 526,
      "su": 527,
      "noali": 528,
      "noalias": 529,
      "ble": 530,
      "var6": 531,
      "readnone": 532,
      "consta": 533,
      "constant": 534,
      "func18": 535,
      "hid": 536,
      "ul": 537,
      "40": 538,
      "den": 539,
      "hidden": 540,
      "func19": 541,
      "boun": 542,
      "inboun": 543,
      "inbounds": 544,
      "()": 545,
      "art": 546,
      "start": 547,
      "and": 548,
      "52": 549,
      "ct": 550,
      "func20": 551,
      "readwrite": 552,
      "39": 553,
      "47": 554,
      "unre": 555,
      "achable": 556,
      "unreachable": 557,
      "us": 558,
      "elect": 559,
      "select": 560,
      "var7": 561,
      "ssi": 562,
      "acce": 563,
      "inacce": 564,
      "blemem": 565,
      "ssiblemem": 566,
      "inaccessiblemem": 567,
      "22": 568,
      "35": 569,
      "func21": 570,
      "55": 571,
      "413": 572,
      "36": 573,
      "end": 574,
      "i6": 575,
      "func22": 576,
      "37": 577,
      "21": 578,
      "th": 579,
      "thread": 580,
      "57": 581,
      "ra": 582,
      "ly": 583,
      "var8": 584,
      "only": 585,
      "66": 586,
      "i5": 587,
      "9f": 588,
      "([": 589,
      "func25": 590,
      "func24": 591,
      "var10": 592,
      "func23": 593,
      "func28": 594,
      "90": 595,
      "func26": 596,
      "i7": 597,
      "34": 598,
      "var9": 599,
      "fa": 600,
      "38": 601,
      "gt": 602,
      "_Z": 603,
      "sub": 604,
      "ne": 605,
      "func29": 606,
      "50": 607,
      "mm": 608,
      "func30": 609,
      "67": 610,
      "func27": 611,
      "O0": 612,
      "imm": 613,
      "immarg": 614,
      "assu": 615,
      "assume": 616,
      "pec": 617,
      "ulat": 618,
      "a3": 619,
      "spec": 620,
      "ulatable": 621,
      "speculatable": 622,
      "shr": 623,
      "70": 624,
      "dere": 625,
      "lshr": 626,
      "EE": 627,
      "81": 628,
      "func32": 629,
      "cond": 630,
      "faust": 631,
      "func31": 632,
      "4f": 633,
      "readonly": 634,
      "88": 635,
      "89": 636,
      "Os": 637,
      "61": 638,
      "c7": 639,
      "var11": 640,
      "address": 641,
      "threadlocal": 642,
      "__": 643,
      "79": 644,
      "peel": 645,
      "49": 646,
      "func34": 647,
      "53": 648,
      "46": 649,
      "nce": 650,
      "i9": 651,
      "cad": 652,
      "c0": 653,
      "b5": 654,
      "ch": 655,
      "ult": 656,
      "func33": 657,
      "Ev": 658,
      "UO": 659,
      "Dra": 660,
      "wing": 661,
      "Drawing": 662,
      "2d": 663,
      "9b5": 664,
      "FUO": 665,
      "Rm": 666,
      "UFUO": 667,
      "ZUFUO": 668,
      "d52": 669,
      "e9f": 670,
      "de2d": 671,
      "freecad": 672,
      "cf413": 673,
      "Mol": 674,
      "44e9f": 675,
      "33de2d": 676,
      "413d52": 677,
      "4fcf413": 678,
      "c744e9f": 679,
      "c033de2d": 680,
      "9b5c744e9f": 681,
      "RmZUFUO": 682,
      "413d52c033de2d": 683,
      "4fcf4139b5c744e9f": 684,
      "RmZUFUOMol": 685,
      "413d52c033de2d4fcf4139b5c744e9f": 686,
      "413d52c033de2d4fcf4139b5c744e9f5": 687,
      "func35": 688,
      "floa": 689,
      "float": 690,
      "42": 691,
      "rence": 692,
      "ference": 693,
      "dereference": 694,
      "dereferenceable": 695,
      "87": 696,
      "(%": 697,
      "ff": 698,
      "60": 699,
      "_ZN": 700,
      "lt": 701,
      "58": 702,
      "i10": 703,
      "f9": 704,
      "ty": 705,
      "func38": 706,
      "54": 707,
      "func37": 708,
      "-<": 709,
      "func36": 710,
      "43": 711,
      "99": 712,
      "516": 713,
      "56": 714,
      "type": 715,
      "var13": 716,
      "var14": 717,
      "ugt": 718,
      "i2": 719,
      "func39": 720,
      "Ic": 721,
      "func40": 722,
      "51": 723,
      "(...)": 724,
      "func41": 725,
      "func44": 726,
      "78": 727,
      "v3": 728,
      "slt": 729,
      "do": 730,
      "var12": 731,
      "func45": 732,
      "nge": 733,
      "range": 734,
      "func42": 735,
      "97": 736,
      "func46": 737,
      "f6": 738,
      "v4": 739,
      "func43": 740,
      "71": 741,
      "uble": 742,
      "double": 743,
      "458": 744,
      "i24": 745,
      "76": 746,
      "stat": 747,
      "lib": 748,
      "qstat": 749,
      "i18": 750,
      "itch": 751,
      "switch": 752,
      "))": 753,
      "Px": 754,
      "xor": 755,
      "d3": 756,
      "Tx": 757,
      "544": 758,
      "func48": 759,
      "5165": 760,
      "1c": 761,
      "Dk": 762,
      "Pq": 763,
      "d544": 764,
      "mach": 765,
      "pf": 766,
      "ce617": 767,
      "cf9f": 768,
      "39d544": 769,
      "90458": 770,
      "faustmach": 771,
      "f939d544": 772,
      "f6f939d544": 773,
      "libfaustmach": 774,
      "Pxpf": 775,
      "d3f6f939d544": 776,
      "TxDk": 777,
      "5165ce617": 778,
      "PqTxDk": 779,
      "cf9f1c": 780,
      "90458d3f6f939d544": 781,
      "libfaustmachine": 782,
      "5165ce61790458d3f6f939d544": 783,
      "PqTxDkPxpf": 784,
      "5165ce61790458d3f6f939d544cf9f1c": 785,
      "neg": 786,
      "sgt": 787,
      "var111": 788,
      "ing": 789,
      "69": 790,
      "85": 791,
      "tring": 792,
      "func47": 793,
      "i19": 794,
      "655": 795,
      "off": 796,
      "_local": 797,
      "thread_local": 798,
      "65536": 799,
      "i20": 800,
      "func49": 801,
      "74": 802,
      "_c": 803,
      "i15": 804,
      "63": 805,
      "b0": 806,
      "84": 807,
      "off0": 808,
      "73": 809,
      "ph": 810,
      "writeonly": 811,
      "xx": 812,
      "func50": 813,
      "bas": 814,
      "ount": 815,
      "NSt": 816,
      "func51": 817,
      "256": 818,
      "62": 819,
      "nneg": 820,
      "func53": 821,
      "68": 822,
      "var17": 823,
      "00": 824,
      "func52": 825,
      "v2": 826,
      "fal": 827,
      "iv": 828,
      "false": 829,
      "_S": 830,
      "func54": 831,
      "ash": 832,
      "fro": 833,
      "var22": 834,
      "8b": 835,
      "65": 836,
      "tz": 837,
      "frotz": 838,
      "func55": 839,
      "v1": 840,
      "f8": 841,
      "func57": 842,
      "i17": 843,
      "i26": 844,
      ">(": 845,
      "func56": 846,
      "7c": 847,
      "i30": 848,
      "returned": 849,
      "func60": 850,
      "i23": 851,
      "func58": 852,
      "lc": 853,
      "lcss": 854,
      "_ZNSt": 855,
      "var23": 856,
      "82": 857,
      "var15": 858,
      "95": 859,
      "mul": 860,
      "var16": 861,
      "its": 862,
      "sin": 863,
      "sink": 864,
      "ashr": 865,
      "i25": 866,
      "func59": 867,
      "i29": 868,
      "i28": 869,
      "_traits": 870,
      "St": 871,
      "var20": 872,
      "83": 873,
      "lcssa": 874,
      "func62": 875,
      "idx": 876,
      "e6": 877,
      "156": 878,
      "b4": 879,
      "ate": 880,
      "true": 881,
      "2Ev": 882,
      "func61": 883,
      "Sa": 884,
      "a3m": 885,
      "_re": 886,
      "cb": 887,
      "!{": 888,
      "416": 889,
      "i40": 890,
      "smb4": 891,
      "smb4k": 892,
      "v5": 893,
      "5T": 894,
      "func63": 895,
      "func64": 896,
      "tor": 897,
      "728": 898,
      "_idx": 899,
      "i11": 900,
      "sroa_idx": 901,
      "i27": 902,
      "1ff": 903,
      "3b0": 904,
      "MX": 905,
      "Y5T": 906,
      "a37": 907,
      "a7c": 908,
      "d25": 909,
      "d81": 910,
      "ef9": 911,
      "59a7c": 912,
      "66d81": 913,
      "81Y5T": 914,
      "e659a7c": 915,
      "a3m81Y5T": 916,
      "cb1ff": 917,
      "728e659a7c": 918,
      "3b0728e659a7c": 919,
      "a37ef9": 920,
      "d2566d81": 921,
      "a3m81Y5TMX": 922,
      "3b0728e659a7cd2566d81": 923,
      "a37ef9cb1ff": 924,
      "3b0728e659a7cd2566d81a37ef9cb1ff": 925,
      "72": 926,
      "94": 927,
      "5f": 928,
      "_traitsIc": 929,
      "06": 930,
      "unpack2": 931,
      "var110": 932,
      "_s": 933,
      "ho": 934,
      "var18": 935,
      "ef": 936,
      "func66": 937,
      "stap": 938,
      "hostap": 939,
      "i31": 940,
      "v9": 941,
      "230": 942,
      "75": 943,
      "func67": 944,
      "set": 945,
      "v7": 946,
      "91": 947,
      "c4": 948,
      "_ZN9": 949,
      "e23": 950,
      "func65": 951,
      "178": 952,
      "var108": 953,
      "func69": 954,
      "_ZN9Q": 955,
      "ESa": 956,
      "char": 957,
      "fEv": 958,
      "func68": 959,
      "ate8": 960,
      "Count": 961,
      "Pr": 962,
      "Ref": 963,
      "tPr": 964,
      "ivate8": 965,
      "_ZN9QtPr": 966,
      "RefCount": 967,
      "ivate8RefCount": 968,
      "_ZN9QtPrivate8RefCount": 969,
      "5dere": 970,
      "5derefEv": 971,
      "var21": 972,
      "i14": 973,
      "_ZN9QtPrivate8RefCount5derefEv": 974,
      "func93": 975,
      "05": 976,
      "func71": 977,
      "_M": 978,
      "func72": 979,
      "D2Ev": 980,
      "gnu_c": 981,
      "558": 982,
      "573": 983,
      "__gnu_c": 984,
      "__gnu_cxx": 985,
      "String": 986,
      "671": 987,
      "7Q": 988,
      "func70": 989,
      "09": 990,
      "func79": 991,
      "7QString": 992,
      "9__gnu_cxx": 993,
      "528": 994,
      ">),": 995,
      "568": 996,
      "memset": 997,
      "unpack27": 998,
      "unpack30": 999,
      "v10": 1000,
      "func80": 1001,
      "basic": 1002,
      "_string": 1003,
      "i22": 1004,
      "func74": 1005,
      "_ZN7QString": 1006,
      "_ZN7QStringD2Ev": 1007,
      "i13": 1008,
      "func73": 1009,
      "_bas": 1010,
      "_base": 1011,
      "var34": 1012,
      "i12": 1013,
      "ec": 1014,
      "IcEE": 1015,
      ">}": 1016,
      "315": 1017,
      "cxx": 1018,
      "func77": 1019,
      "cxx11": 1020,
      "i39": 1021,
      "func75": 1022,
      "func84": 1023,
      "__cxx11": 1024,
      "var19": 1025,
      "104": 1026,
      "func76": 1027,
      "basic_string": 1028,
      "966": 1029,
      "ST": 1030,
      "::": 1031,
      "G_CONST": 1032,
      "RIN": 1033,
      "STRIN": 1034,
      "STRING_CONST": 1035,
      "Lo": 1036,
      "func78": 1037,
      "func82": 1038,
      "ck": 1039,
      "98": 1040,
      "func89": 1041,
      "12_": 1042,
      "var28": 1043,
      "c8": 1044,
      "129": 1045,
      "7__cxx11": 1046,
      "11char": 1047,
      "func85": 1048,
      "func86": 1049,
      "i36": 1050,
      "12basic_string": 1051,
      "7__cxx1112basic_string": 1052,
      "11char_traitsIc": 1053,
      "a4": 1054,
      "IcSt": 1055,
      "IcSt11char_traitsIc": 1056,
      "7__cxx1112basic_stringIcSt11char_traitsIc": 1057,
      "ESaIcEE": 1058,
      "Lock": 1059,
      "7__cxx1112basic_stringIcSt11char_traitsIcESaIcEE": 1060,
      "func91": 1061,
      "102": 1062,
      "0W": 1063,
      "08b": 1064,
      "1W": 1065,
      "8c4": 1066,
      "DD": 1067,
      "Kx": 1068,
      "a0W": 1069,
      "dfrotz": 1070,
      "ebb": 1071,
      "f53": 1072,
      "o1W": 1073,
      "v29": 1074,
      "10671": 1075,
      "5b08b": 1076,
      "dd8c4": 1077,
      "8b966": 1078,
      "e235b08b": 1079,
      "315dd8c4": 1080,
      "DDKx": 1081,
      "a0Wo1W": 1082,
      "ebb8b966": 1083,
      "f53315dd8c4": 1084,
      "10671f53315dd8c4": 1085,
      "e235b08b10671f53315dd8c4": 1086,
      "a0Wo1WDDKx": 1087,
      "ebb8b966e235b08b10671f53315dd8c4": 1088,
      "func83": 1089,
      "v6": 1090,
      "Qs": 1091,
      "i37": 1092,
      "_po": 1093,
      "i35": 1094,
      "func92": 1095,
      "func87": 1096,
      "3a": 1097,
      "yE": 1098,
      "func88": 1099,
      "103": 1100,
      "N9__gnu_cxx": 1101,
      "func81": 1102,
      "ase": 1103,
      "lic": 1104,
      "12_Lock": 1105,
      "_polic": 1106,
      "yE2": 1107,
      "12_Lock_polic": 1108,
      "12_Lock_policyE2": 1109,
      "_ZNSt16": 1110,
      "pr": 1111,
      "func117": 1112,
      "_count": 1113,
      "96": 1114,
      "_baseI": 1115,
      "func102": 1116,
      "__x": 1117,
      "__y": 1118,
      "LN9__gnu_cxx": 1119,
      "LN9__gnu_cxx12_Lock_policyE2": 1120,
      "di": 1121,
      "func90": 1122,
      "106": 1123,
      "LN9__gnu_cxx12_Lock_policyE2EE": 1124,
      "var24": 1125,
      "i34": 1126,
      "func105": 1127,
      "_M_re": 1128,
      "i21": 1129,
      "lease": 1130,
      "861": 1131,
      "unpack28": 1132,
      "leaseEv": 1133,
      "p_count": 1134,
      "ed_baseI": 1135,
      "10_M_re": 1136,
      "_Sp_count": 1137,
      "_ZNSt16_Sp_count": 1138,
      "LN9__gnu_cxx12_Lock_policyE2EE10_M_re": 1139,
      "ed_baseILN9__gnu_cxx12_Lock_policyE2EE10_M_re": 1140,
      "_ZNSt16_Sp_counted_baseILN9__gnu_cxx12_Lock_policyE2EE10_M_re": 1141,
      "_ZNSt16_Sp_counted_baseILN9__gnu_cxx12_Lock_policyE2EE10_M_releaseEv": 1142,
      "111": 1143,
      "fig": 1144,
      "unpack32": 1145,
      "unpack29": 1146,
      "i42": 1147,
      "04": 1148,
      "a9": 1149,
      "0e": 1150,
      "92": 1151,
      "414": 1152,
      "93": 1153,
      "ost": 1154,
      "i45": 1155,
      "564": 1156,
      "unpack31": 1157,
      "115": 1158,
      "func97": 1159,
      "dC": 1160,
      "O1": 1161,
      "og": 1162,
      "alog": 1163,
      "config": 1164,
      "i41": 1165,
      "i55": 1166,
      "0c8": 1167,
      "8a6": 1168,
      "VdC": 1169,
      "W2": 1170,
      "WQs": 1171,
      "a4f": 1172,
      "bVdC": 1173,
      "cW2": 1174,
      "efa": 1175,
      "ada9": 1176,
      "ed8a6": 1177,
      "19a4f": 1178,
      "45ed8a6": 1179,
      "f8ada9": 1180,
      "smb4kconfig": 1181,
      "5f0c8": 1182,
      "3a5f0c8": 1183,
      "dialog": 1184,
      "0e19a4f": 1185,
      "WQscW2": 1186,
      "bVdCWQscW2": 1187,
      "efa0e19a4f": 1188,
      "45ed8a6efa0e19a4f": 1189,
      "f8ada933": 1190,
      "smb4kconfigdialog": 1191,
      "3a5f0c8f8ada933": 1192,
      "45ed8a6efa0e19a4f3a5f0c8f8ada933": 1193,
      "be": 1194,
      "func216": 1195,
      "155": 1196,
      "var26": 1197,
      "PKc": 1198,
      "i33": 1199,
      "689": 1200,
      "752": 1201,
      "ted": 1202,
      "i38": 1203,
      "i43": 1204,
      "i59": 1205,
      "6c": 1206,
      "i57": 1207,
      "105": 1208,
      "229": 1209,
      "236": 1210,
      "e87": 1211,
      "um": 1212,
      "e87e": 1213,
      "oost": 1214,
      "5boost": 1215,
      "FT": 1216,
      "ption": 1217,
      "cli": 1218,
      "233": 1219,
      "i50": 1220,
      "func110": 1221,
      "func98": 1222,
      "gex": 1223,
      "d_cli": 1224,
      "hostapd_cli": 1225,
      "cond1": 1226,
      "718": 1227,
      "e3": 1228,
      "i56": 1229,
      "567": 1230,
      "6f8": 1231,
      "7FT": 1232,
      "Ln": 1233,
      "U7FT": 1234,
      "Xy": 1235,
      "lU7FT": 1236,
      "rLn": 1237,
      "bba6": 1238,
      "269": 1239,
      "e0b0": 1240,
      "c76f8": 1241,
      "87c76f8": 1242,
      "5f752": 1243,
      "hostapd": 1244,
      "861e87e": 1245,
      "6c87c76f8": 1246,
      "e3bba6": 1247,
      "XylU7FT": 1248,
      "rLnXylU7FT": 1249,
      "e0b0c": 1250,
      "5f752e0b0c": 1251,
      "861e87e5f752e0b0c": 1252,
      "6c87c76f8e3bba6": 1253,
      "6c87c76f8e3bba6861e87e5f752e0b0c": 1254,
      "Lb": 1255,
      "fr": 1256,
      "O2": 1257,
      "996": 1258,
      "136": 1259,
      "mo": 1260,
      "209": 1261,
      "i77": 1262,
      "s1": 1263,
      "exce": 1264,
      "120": 1265,
      "unpack5": 1266,
      "0_": 1267,
      "v11": 1268,
      "func94": 1269,
      "var25": 1270,
      "am": 1271,
      "func95": 1272,
      "func99": 1273,
      "i60": 1274,
      "i70": 1275,
      "0000": 1276,
      "130": 1277,
      "func116": 1278,
      "promo": 1279,
      "unpack7": 1280,
      "exception": 1281,
      "promoted": 1282,
      "cp": 1283,
      "12F": 1284,
      "v16": 1285,
      "umin": 1286,
      "12Falltergeist": 1287,
      "sext": 1288,
      "div": 1289,
      "280": 1290,
      "func96": 1291,
      "107": 1292,
      "217": 1293,
      "194": 1294,
      "344": 1295,
      "func100": 1296,
      "235": 1297,
      "init": 1298,
      "func103": 1299,
      "str": 1300,
      "457": 1301,
      "ator": 1302,
      "pl": 1303,
      "var126": 1304,
      "i439": 1305,
      "_ZN12Falltergeist": 1306,
      "var32": 1307,
      "123": 1308,
      "var43": 1309,
      "510": 1310,
      "v20": 1311,
      "124": 1312,
      "ER": 1313,
      "IS": 1314,
      "347": 1315,
      "select32": 1316,
      "i52": 1317,
      "func113": 1318,
      "func101": 1319,
      "131": 1320,
      "112": 1321,
      "259": 1322,
      "v18": 1323,
      "zer": 1324,
      "exit14": 1325,
      "i54": 1326,
      "08": 1327,
      "loo": 1328,
      "var127": 1329,
      "204": 1330,
      "ector": 1331,
      "531": 1332,
      "242": 1333,
      "187": 1334,
      "132": 1335,
      "937": 1336,
      "func108": 1337,
      "erator": 1338,
      "iterator": 1339,
      "func106": 1340,
      "252": 1341,
      "func104": 1342,
      "mat": 1343,
      "163": 1344,
      "EEEE": 1345,
      "122": 1346,
      "i53": 1347,
      "07": 1348,
      "func119": 1349,
      "i68": 1350,
      "std": 1351,
      "exit16": 1352,
      "isr": 1353,
      "je": 1354,
      "func126": 1355,
      "func107": 1356,
      "isra": 1357,
      "947": 1358,
      "fp": 1359,
      "func115": 1360,
      "272": 1361,
      "func112": 1362,
      "cond2": 1363,
      "557": 1364,
      "i4393": 1365,
      "02": 1366,
      "i61": 1367,
      "i51": 1368,
      "310": 1369,
      "i67": 1370,
      "i69": 1371,
      "func111": 1372,
      "i78": 1373,
      "108": 1374,
      "i65": 1375,
      "func109": 1376,
      "849": 1377,
      "_ZNSt7__cxx1112basic_stringIcSt11char_traitsIcESaIcEE": 1378,
      "am_": 1379,
      "154": 1380,
      "func125": 1381,
      "alloc": 1382,
      "255": 1383,
      "func120": 1384,
      "182": 1385,
      "i47": 1386,
      "208": 1387,
      "sult": 1388,
      "477": 1389,
      "439": 1390,
      "ns": 1391,
      "v17": 1392,
      "func114": 1393,
      "var115": 1394,
      "i46": 1395,
      "i48": 1396,
      "238": 1397,
      "gex_traitsIc": 1398,
      "ext2": 1399,
      "i58": 1400,
      "687": 1401,
      "887": 1402,
      "244": 1403,
      "%\"": 1404,
      "311": 1405,
      "159": 1406,
      "ax": 1407,
      "func121": 1408,
      "v12": 1409,
      "var49": 1410,
      "i49": 1411,
      "901": 1412,
      "ject": 1413,
      "515": 1414,
      "src": 1415,
      "239": 1416,
      "191": 1417,
      "i73": 1418,
      "527": 1419,
      "_de": 1420,
      "var31": 1421,
      "161": 1422,
      "exit19": 1423,
      "572": 1424,
      "p_": 1425,
      "v8": 1426,
      "ast": 1427,
      "101": 1428,
      "i0": 1429,
      "247": 1430,
      "_iterator": 1431,
      "cast": 1432,
      "e32": 1433,
      "var30": 1434,
      "func118": 1435,
      "03": 1436,
      "511": 1437,
      "_EE": 1438,
      "NSt7__cxx1112basic_stringIcSt11char_traitsIcESaIcEE": 1439,
      "5boost13": 1440,
      "4178": 1441,
      "747": 1442,
      "par": 1443,
      "ui": 1444,
      "1245": 1445,
      "177": 1446,
      "4064": 1447,
      "4029": 1448,
      "4042": 1449,
      "4058": 1450,
      "4161": 1451,
      "4167": 1452,
      "4145": 1453,
      "513": 1454,
      "409": 1455,
      "471": 1456,
      "790": 1457,
      "931": 1458,
      "fo": 1459,
      "149": 1460,
      "i66": 1461,
      "116": 1462,
      "Game": 1463,
      "v15": 1464,
      "i80": 1465,
      "243": 1466,
      "C2": 1467,
      "NS_": 1468,
      "1032": 1469,
      "frei0": 1470,
      "frei0r": 1471,
      "435": 1472,
      "func123": 1473,
      "906": 1474,
      "i76": 1475,
      "225": 1476,
      "v35": 1477,
      "109": 1478,
      "240": 1479,
      "func122": 1480,
      "i79": 1481,
      "514": 1482,
      "te": 1483,
      "func130": 1484,
      "dc": 1485,
      "func124": 1486,
      "2797": 1487,
      "258": 1488,
      "4085": 1489,
      "430": 1490,
      "4Game": 1491,
      "811": 1492,
      "f19": 1493,
      "991": 1494,
      "_detail": 1495,
      "519": 1496,
      "unpack44": 1497,
      "unpack66": 1498,
      "i71": 1499,
      "bject": 1500,
      "576": 1501,
      "trunc6": 1502,
      "4199": 1503,
      "571": 1504,
      "480": 1505,
      "532": 1506,
      "_50": 1507,
      "re_detail": 1508,
      "ell": 1509,
      "i85": 1510,
      "i44": 1511,
      "var109": 1512,
      "5boost13re_detail": 1513,
      "5boost13re_detail_50": 1514,
      "info": 1515,
      "5906": 1516,
      "257": 1517,
      "583": 1518,
      "1r": 1519,
      "3f8": 1520,
      "857": 1521,
      "Bm": 1522,
      "c3f8": 1523,
      "g1r": 1524,
      "jtr": 1525,
      "lBm": 1526,
      "punpack": 1527,
      "12fe": 1528,
      "exit17": 1529,
      "450": 1530,
      "4032": 1531,
      "4016": 1532,
      "35c4": 1533,
      "57f6": 1534,
      "797": 1535,
      "871": 1536,
      "582": 1537,
      "78lBm": 1538,
      "9735c4": 1539,
      "73c3f8": 1540,
      "4165": 1541,
      "e2373c3f8": 1542,
      "ecpunpack": 1543,
      "prjtr": 1544,
      "5645": 1545,
      "Lb78lBm": 1546,
      "e3212fe": 1547,
      "f199735c4": 1548,
      "ellis": 1549,
      "57f6e3212fe": 1550,
      "e2373c3f857f6e3212fe": 1551,
      "prjtrellis": 1552,
      "Lb78lBmg1r": 1553,
      "f199735c4e2373c3f857f6e3212fe": 1554,
      "f199735c4e2373c3f857f6e3212fe471": 1555,
      "v13": 1556,
      "func132": 1557,
      "gep": 1558,
      "768": 1559,
      "5642": 1560,
      "226": 1561,
      "func127": 1562,
      "150": 1563,
      "i86": 1564,
      "454": 1565,
      "i62": 1566,
      "961": 1567,
      "144": 1568,
      "294": 1569,
      "782": 1570,
      "464": 1571,
      "mal": 1572,
      "sdiv": 1573,
      "i111": 1574,
      "i118": 1575,
      "i139": 1576,
      "296": 1577,
      "228": 1578,
      "827": 1579,
      "Tk": 1580,
      "5909": 1581,
      "909": 1582,
      "561": 1583,
      "e7": 1584,
      "fire": 1585,
      "5911": 1586,
      "5936": 1587,
      "func129": 1588,
      "func145": 1589,
      "func156": 1590,
      "841": 1591,
      "917": 1592,
      "977": 1593,
      "KS": 1594,
      "1256": 1595,
      "exit15": 1596,
      "var33": 1597,
      "func139": 1598,
      "4045": 1599,
      "4098": 1600,
      "i63": 1601,
      "4148": 1602,
      "6111": 1603,
      "IPKc": 1604,
      "2822": 1605,
      "808": 1606,
      "4185": 1607,
      "2588": 1608,
      "2997": 1609,
      "4088": 1610,
      "5705": 1611,
      "5702": 1612,
      "i75": 1613,
      "502": 1614,
      "7043": 1615,
      "6896": 1616,
      "2591": 1617,
      "a7": 1618,
      "func128": 1619,
      "i84": 1620,
      "125": 1621,
      "funcre": 1622,
      "funcresult": 1623,
      "110": 1624,
      "C9": 1625,
      "ms": 1626,
      "p_re": 1627,
      "ED2Ev": 1628,
      "exit18": 1629,
      "118": 1630,
      "func146": 1631,
      "i72": 1632,
      "_b": 1633,
      "func131": 1634,
      "279": 1635,
      "667": 1636,
      "492": 1637,
      "param_": 1638,
      "i190": 1639,
      "447": 1640,
      "i102": 1641,
      "00e": 1642,
      "exit13": 1643,
      "526": 1644,
      "rmal": 1645,
      "normal": 1646,
      "i117": 1647,
      "i133": 1648,
      "i81": 1649,
      "17__": 1650,
      "initi": 1651,
      "match": 1652,
      "normal_iterator": 1653,
      "17__normal_iterator": 1654,
      "brlt": 1655,
      "cpy": 1656,
      "cpp_re": 1657,
      "brltty": 1658,
      "a5": 1659,
      "bit": 1660,
      "100": 1661,
      "304": 1662,
      "func135": 1663,
      "433": 1664,
      "dms": 1665,
      "1071": 1666,
      "func147": 1667,
      "290": 1668,
      "dos": 1669,
      "bitcast": 1670,
      "dmsdos": 1671,
      "i90": 1672,
      "i135": 1673,
      "114": 1674,
      "489": 1675,
      "364": 1676,
      "allocator": 1677,
      "555": 1678,
      "i74": 1679,
      "000000e": 1680,
      "func140": 1681,
      "func143": 1682,
      "In": 1683,
      "i164": 1684,
      "i89": 1685,
      "smax": 1686,
      "var29": 1687,
      "var36": 1688,
      "17__normal_iteratorIPKc": 1689,
      "\"=": 1690,
      "113": 1691,
      "806": 1692,
      "\"=\"": 1693,
      "Jw": 1694,
      "QC9": 1695,
      "a89": 1696,
      "c687": 1697,
      "e7c": 1698,
      "f239": 1699,
      "qLb": 1700,
      "IN9__gnu_cxx": 1701,
      "i132": 1702,
      "ac14": 1703,
      "ed513": 1704,
      "func219": 1705,
      "memcpy": 1706,
      "15ac14": 1707,
      "80236": 1708,
      "70f239": 1709,
      "dcread": 1710,
      "JwQC9": 1711,
      "a8970f239": 1712,
      "c68715ac14": 1713,
      "e7c80236": 1714,
      "qLbTk": 1715,
      "ed513c68715ac14": 1716,
      "JwQC9qLbTk": 1717,
      "e7c80236ed513c68715ac14": 1718,
      "e7c80236ed513c68715ac14a8970f239": 1719,
      "546": 1720,
      "func141": 1721,
      "121": 1722,
      "134": 1723,
      "862": 1724,
      "222": 1725,
      "5boost13re_detail_500": 1726,
      "initiali": 1727,
      "227": 1728,
      "var27": 1729,
      "1019": 1730,
      "1060": 1731,
      "unpack37": 1732,
      "700": 1733,
      "897": 1734,
      "954": 1735,
      "Vector": 1736,
      "v19": 1737,
      "649": 1738,
      "i87": 1739,
      "func133": 1740,
      "func137": 1741,
      "i93": 1742,
      "IN9__gnu_cxx17__normal_iteratorIPKc": 1743,
      "958": 1744,
      "mt": 1745,
      "},": 1746,
      "trans": 1747,
      "param_info": 1748,
      "EP": 1749,
      "i119": 1750,
      "trunc2": 1751,
      "func134": 1752,
      "func136": 1753,
      "470": 1754,
      "523": 1755,
      "626": 1756,
      "760": 1757,
      "833": 1758,
      "840": 1759,
      "i114": 1760,
      "func138": 1761,
      "2999": 1762,
      "888": 1763,
      "605": 1764,
      "746": 1765,
      "hash": 1766,
      "i88": 1767,
      "exit41": 1768,
      "503": 1769,
      "703": 1770,
      "837": 1771,
      "oinitiali": 1772,
      "i127": 1773,
      "i124": 1774,
      "1015": 1775,
      "1006": 1776,
      "1009": 1777,
      "func144": 1778,
      "907": 1779,
      "i96": 1780,
      "zeroinitiali": 1781,
      "zeroinitializer": 1782,
      "127": 1783,
      "165": 1784,
      "16cpp_re": 1785,
      "126": 1786,
      "func149": 1787,
      "2530": 1788,
      "337": 1789,
      "4762": 1790,
      "878": 1791,
      "603": 1792,
      "4774": 1793,
      "IN9__gnu_cxx17__normal_iteratorIPKcNSt7__cxx1112basic_stringIcSt11char_traitsIcESaIcEE": 1794,
      "16cpp_regex_traitsIc": 1795,
      "580": 1796,
      "535": 1797,
      "628": 1798,
      "622": 1799,
      "758": 1800,
      "911": 1801,
      "980": 1802,
      "960": 1803,
      "3252": 1804,
      "i137": 1805,
      "i138": 1806,
      "i146": 1807,
      "1045": 1808,
      "1063": 1809,
      "1213": 1810,
      "860": 1811,
      "i445": 1812,
      "2340": 1813,
      "_ZNK": 1814,
      "619": 1815,
      "1082": 1816,
      "2424": 1817,
      "2300": 1818,
      "_M_": 1819,
      "4801": 1820,
      "1105": 1821,
      "2129": 1822,
      "2269": 1823,
      "2235": 1824,
      "2310": 1825,
      "537": 1826,
      "7617": 1827,
      "886": 1828,
      "835": 1829,
      "967": 1830,
      "i126": 1831,
      "2824": 1832,
      "3137": 1833,
      "1087": 1834,
      "1058": 1835,
      "1097": 1836,
      "2426": 1837,
      "2611": 1838,
      "5938": 1839,
      "7762": 1840,
      "func148": 1841,
      "2548": 1842,
      "unpack18": 1843,
      "2385": 1844,
      "3391": 1845,
      "4818": 1846,
      "4092": 1847,
      "3950": 1848,
      "4785": 1849,
      "3530": 1850,
      "3670": 1851,
      "2132": 1852,
      "5725": 1853,
      "3810": 1854,
      "7045": 1855,
      "6113": 1856,
      "993": 1857,
      "7331": 1858,
      "682": 1859,
      "6898": 1860,
      "7188": 1861,
      "7474": 1862,
      "7905": 1863,
      "828": 1864,
      "spl": 1865,
      "i130": 1866,
      "i83": 1867,
      "trunc9": 1868,
      "shift2": 1869,
      "1085": 1870,
      "133": 1871,
      "2475": 1872,
      "805": 1873,
      "2528": 1874,
      "2330": 1875,
      "2374": 1876,
      "2210": 1877,
      "i95": 1878,
      "i104": 1879,
      "loop": 1880,
      "split": 1881,
      "(<": 1882,
      "916": 1883,
      "935": 1884,
      "146": 1885,
      "2174": 1886,
      "2253": 1887,
      "2238": 1888,
      "753": 1889,
      "743": 1890,
      "vector": 1891,
      "tofp": 1892,
      "168": 1893,
      "1010": 1894,
      "1013": 1895,
      "2453": 1896,
      "2456": 1897,
      "2478": 1898,
      "func142": 1899,
      "2525": 1900,
      "2506": 1901,
      "2503": 1902,
      "2304": 1903,
      "2307": 1904,
      "2296": 1905,
      "2171": 1906,
      "164": 1907,
      "2103": 1908,
      "427": 1909,
      "711": 1910,
      "i140": 1911,
      "143": 1912,
      "2221": 1913,
      "pn": 1914,
      "wx": 1915,
      "INS": 1916,
      "er_": 1917,
      "i177": 1918,
      "i150": 1919,
      "func151": 1920,
      "func193": 1921,
      "3_": 1922,
      "738": 1923,
      "ld": 1924,
      "i122": 1925,
      "exit20": 1926,
      "140": 1927,
      "fpto": 1928,
      "tre": 1929,
      "i115": 1930,
      "599": 1931,
      "293": 1932,
      "i91": 1933,
      "i106": 1934,
      "_SB": 1935,
      "fmt": 1936,
      "i134": 1937,
      "i179": 1938,
      "i335": 1939,
      "unpack6": 1940,
      "i92": 1941,
      "i197": 1942,
      "var35": 1943,
      "var37": 1944,
      "func152": 1945,
      "a_": 1946,
      "old": 1947,
      "169": 1948,
      "exit26": 1949,
      "248": 1950,
      "unpack59": 1951,
      "i97": 1952,
      "600": 1953,
      "3O": 1954,
      "B3O": 1955,
      "Xo": 1956,
      "_match": 1957,
      "cd": 1958,
      "dll": 1959,
      "dXo": 1960,
      "e10": 1961,
      "f711": 1962,
      "hdll": 1963,
      "pv": 1964,
      "v0": 1965,
      "i123": 1966,
      "i188": 1967,
      "30a7": 1968,
      "119": 1969,
      "link": 1970,
      "7746": 1971,
      "func153": 1972,
      "func172": 1973,
      "47805": 1974,
      "i105": 1975,
      "i108": 1976,
      "i109": 1977,
      "c847805": 1978,
      "e7304": 1979,
      "hashlink": 1980,
      "wxdXo": 1981,
      "73830a7": 1982,
      "B3OwxdXo": 1983,
      "cdc847805": 1984,
      "e10e7304": 1985,
      "f711e10e7304": 1986,
      "pvB3OwxdXo": 1987,
      "73830a7f711e10e7304": 1988,
      "cdc8478057746": 1989,
      "73830a7f711e10e7304cdc8478057746": 1990,
      "ion": 1991,
      "va_": 1992,
      "exit6": 1993,
      "func150": 1994,
      "509": 1995,
      "Em": 1996,
      "mil": 1997,
      "malloc": 1998,
      "udiv": 1999,
      "i147": 2000,
      "289": 2001,
      "157": 2002,
      "158": 2003,
      "exit28": 2004,
      "famil": 2005,
      "i263": 2006,
      "family": 2007,
      "186": 2008,
      "6F": 2009,
      "i125": 2010,
      "trunc4": 2011,
      "var42": 2012,
      "func158": 2013,
      "466": 2014,
      "434": 2015,
      "739": 2016,
      "_o": 2017,
      "ze": 2018,
      "i113": 2019,
      "i152": 2020,
      "i170": 2021,
      "i149": 2022,
      "i82": 2023,
      "exit2": 2024,
      "urem": 2025,
      "408": 2026,
      "fptoui": 2027,
      "i110": 2028,
      "i121": 2029,
      "i178": 2030,
      "const": 2031,
      "346": 2032,
      "unpack226": 2033,
      "Object": 2034,
      "Py": 2035,
      "a5b": 2036,
      "del": 2037,
      "gra": 2038,
      "trunc3": 2039,
      "141": 2040,
      "func154": 2041,
      "i94": 2042,
      "graph": 2043,
      ">:": 2044,
      "List": 2045,
      "162": 2046,
      "trunc1": 2047,
      "i168": 2048,
      "i169": 2049,
      "170": 2050,
      "295": 2051,
      "!{!": 2052,
      "ESaIS": 2053,
      "e8": 2054,
      "up": 2055,
      "i112": 2056,
      "exit10": 2057,
      "prop": 2058,
      "207": 2059,
      "i98": 2060,
      "i203": 2061,
      "_i": 2062,
      "v14": 2063,
      "i136": 2064,
      "ormat": 2065,
      "142": 2066,
      "i435": 2067,
      "201": 2068,
      "i99": 2069,
      "i153": 2070,
      "var54": 2071,
      "i100": 2072,
      "i207": 2073,
      "9c": 2074,
      "9sub": 2075,
      "age": 2076,
      "i186": 2077,
      "i173": 2078,
      "12re": 2079,
      "i175": 2080,
      "constprop": 2081,
      "9sub_match": 2082,
      "6vector": 2083,
      "936": 2084,
      "ope": 2085,
      "si": 2086,
      "string": 2087,
      "v27": 2088,
      "i154": 2089,
      "func177": 2090,
      "152": 2091,
      "exit27": 2092,
      "i348": 2093,
      "189": 2094,
      "func161": 2095,
      "i444": 2096,
      "var51": 2097,
      "func170": 2098,
      "func174": 2099,
      "nceEv": 2100,
      "i103": 2101,
      "i107": 2102,
      "_ZN12Falltergeist4Game": 2103,
      "i131": 2104,
      "i129": 2105,
      "getIn": 2106,
      "exit32": 2107,
      "11getIn": 2108,
      "func157": 2109,
      "199": 2110,
      "stanceEv": 2111,
      "func176": 2112,
      "i206": 2113,
      "6Format": 2114,
      "11getInstanceEv": 2115,
      "6Format3": 2116,
      "4i18": 2117,
      "nPKc": 2118,
      "i174": 2119,
      "row": 2120,
      "_Z4i18": 2121,
      "uitofp": 2122,
      "_Z4i18nPKc": 2123,
      "012": 2124,
      "_pro": 2125,
      "v40": 2126,
      "i116": 2127,
      "i141": 2128,
      "277": 2129,
      "153": 2130,
      "exit39": 2131,
      "func162": 2132,
      "func163": 2133,
      "func173": 2134,
      "i101": 2135,
      "i243": 2136,
      "i184": 2137,
      "i222": 2138,
      "IN9__gnu_cxx17__normal_iteratorIPKcNSt7__cxx1112basic_stringIcSt11char_traitsIcESaIcEEEE": 2139,
      "_SB_SB": 2140,
      "12regex_traitsIc": 2141,
      "2Py": 2142,
      "699": 2143,
      "EED2Ev": 2144,
      "_R": 2145,
      "ent": 2146,
      "NS0_": 2147,
      "i144": 2148,
      "func166": 2149,
      "369": 2150,
      "_ZN12Falltergeist6Format3": 2151,
      "look": 2152,
      "16cpp_regex_traitsIcEEEE": 2153,
      "215": 2154,
      "T_S": 2155,
      "})": 2156,
      "insert7": 2157,
      "i159": 2158,
      "ext4": 2159,
      "exit4": 2160,
      "func155": 2161,
      "func167": 2162,
      "func169": 2163,
      "i417": 2164,
      "var50": 2165,
      "frame": 2166,
      "init_pro": 2167,
      "ERKS": 2168,
      "lookup": 2169,
      "init_proc": 2170,
      "Dat": 2171,
      "func164": 2172,
      "add_": 2173,
      "160": 2174,
      "or_": 2175,
      "exit64": 2176,
      "exit30": 2177,
      "246": 2178,
      "func165": 2179,
      "_ZN2Py": 2180,
      "i195": 2181,
      "i285": 2182,
      "EX": 2183,
      "HEX": 2184,
      "K6": 2185,
      "mon": 2186,
      "v24": 2187,
      "i181": 2188,
      "i187": 2189,
      "i199": 2190,
      "i336": 2191,
      "time_": 2192,
      "195": 2193,
      "185": 2194,
      "func168": 2195,
      "HEX_CONST": 2196,
      "'<": 2197,
      ".@": 2198,
      "2a2": 2199,
      "6e": 2200,
      ">'": 2201,
      "Zk": 2202,
      "ZQs": 2203,
      "_Vector": 2204,
      "ail": 2205,
      "bab": 2206,
      "f18": 2207,
      "jail": 2208,
      "qZQs": 2209,
      "i157": 2210,
      "ext9": 2211,
      "dsZk": 2212,
      "a123": 2213,
      "a187": 2214,
      "exit11": 2215,
      "exit37": 2216,
      "190": 2217,
      "57bab": 2218,
      "ff6e": 2219,
      "_ZN11": 2220,
      "_ZN5boost13re_detail_500": 2221,
      "i241": 2222,
      "b093": 2223,
      "i234": 2224,
      "5672a2": 2225,
      "firemon": 2226,
      "firejail": 2227,
      "9c57bab": 2228,
      "i4449": 2229,
      "_ZN12Falltergeist4Game4Game": 2230,
      "K6dsZk": 2231,
      "f18a187": 2232,
      "qZQsK6dsZk": 2233,
      "a123f18a187": 2234,
      "ff6ea123f18a187": 2235,
      "5672a2b093": 2236,
      "9c57babff6ea123f18a187": 2237,
      "9c57babff6ea123f18a1875672a2b093": 2238,
      "d6": 2239,
      "t8": 2240,
      "i120": 2241,
      "exit7": 2242,
      "not3": 2243,
      "i242": 2244,
      "i196": 2245,
      "St4": 2246,
      "214": 2247,
      "380": 2248,
      "929": 2249,
      "v30": 2250,
      "exact": 2251,
      "func215": 2252,
      "var114": 2253,
      "196": 2254,
      "func160": 2255,
      "i307": 2256,
      "_ZN12Falltergeist4Game4Game11getInstanceEv": 2257,
      "pL": 2258,
      "v26": 2259,
      "i145": 2260,
      "i155": 2261,
      "func159": 2262,
      "trunc5": 2263,
      "allocate": 2264,
      "234": 2265,
      "206": 2266,
      "func182": 2267,
      "_imp": 2268,
      "ES": 2269,
      "IP": 2270,
      "fadd": 2271,
      "v23": 2272,
      "v44": 2273,
      "i143": 2274,
      "exit31": 2275,
      "not4": 2276,
      "func171": 2277,
      "i193": 2278,
      "C2E": 2279,
      "6Object": 2280,
      "8e0": 2281,
      "Ml": 2282,
      "fmul": 2283,
      "kpL": 2284,
      "lx": 2285,
      "qkpL": 2286,
      "v52": 2287,
      "xlx": 2288,
      "16e8": 2289,
      "a1929": 2290,
      "i161": 2291,
      "145": 2292,
      "1413": 2293,
      "419": 2294,
      "5b699": 2295,
      "29849": 2296,
      "i228": 2297,
      "i223": 2298,
      "libbrltty": 2299,
      "3aPx": 2300,
      "bea5": 2301,
      "ERK": 2302,
      "a5b8e0": 2303,
      "delta": 2304,
      "time_delta": 2305,
      "d6a5b8e0": 2306,
      "MlqkpL": 2307,
      "16e829849": 2308,
      "a1929bea5": 2309,
      "5b69916e829849": 2310,
      "libbrlttyxlx": 2311,
      "d6a5b8e05b69916e829849": 2312,
      "MlqkpL3aPx": 2313,
      "a1929bea5d6a5b8e05b69916e829849": 2314,
      "a1929bea5d6a5b8e05b69916e829849d": 2315,
      "011": 2316,
      "232": 2317,
      "6S": 2318,
      "_E": 2319,
      "pa": 2320,
      "v21": 2321,
      "i189": 2322,
      "var123": 2323,
      "i165": 2324,
      "exit46": 2325,
      "135": 2326,
      "137": 2327,
      "147": 2328,
      "func175": 2329,
      "func178": 2330,
      "func179": 2331,
      "932": 2332,
      "not6": 2333,
      "func188": 2334,
      "363": 2335,
      "var97": 2336,
      "i282": 2337,
      "216": 2338,
      "512": 2339,
      "nar": 2340,
      "i180": 2341,
      "i148": 2342,
      "get_": 2343,
      "i162": 2344,
      "exit38": 2345,
      "i342": 2346,
      "197": 2347,
      "188": 2348,
      "var53": 2349,
      "var57": 2350,
      "203": 2351,
      "338": 2352,
      "func184": 2353,
      "i304": 2354,
      "_ZNSt6vector": 2355,
      "i250": 2356,
      "SaI": 2357,
      "nsgraph": 2358,
      "agensgraph": 2359,
      "narrow": 2360,
      "386": 2361,
      "ser": 2362,
      "v33": 2363,
      "var41": 2364,
      "i158": 2365,
      "ed_": 2366,
      "exit35": 2367,
      "117": 2368,
      "1191": 2369,
      "var52": 2370,
      "Event": 2371,
      "i247": 2372,
      "i201": 2373,
      "play": 2374,
      "_ZNSt7__cxx1112basic_stringIcSt11char_traitsIcESaIcEE9": 2375,
      "for": 2376,
      "hand": 2377,
      "m_": 2378,
      "ush": 2379,
      "uct": 2380,
      "i156": 2381,
      "262": 2382,
      "401": 2383,
      "426": 2384,
      "E8": 2385,
      "i326": 2386,
      "i316": 2387,
      "i357": 2388,
      "171": 2389,
      "172": 2390,
      "333": 2391,
      "select19": 2392,
      "501": 2393,
      "__a": 2394,
      "__b": 2395,
      "i227": 2396,
      "i219": 2397,
      "i208": 2398,
      "_bu": 2399,
      "_object": 2400,
      "i176": 2401,
      "ord": 2402,
      "exit44": 2403,
      "i379": 2404,
      "i416": 2405,
      "i212": 2406,
      "i215": 2407,
      "i183": 2408,
      "i209": 2409,
      "e6hand": 2410,
      "INS_": 2411,
      "e6handle": 2412,
      "264": 2413,
      "2105": 2414,
      "v50": 2415,
      "inframe": 2416,
      "i151": 2417,
      "ascad": 2418,
      "1031": 2419,
      "ncascad": 2420,
      "exit60": 2421,
      "139": 2422,
      "241": 2423,
      "select1": 2424,
      "i210": 2425,
      "i205": 2426,
      "4668": 2427,
      "opencascad": 2428,
      "_ZN11opencascad": 2429,
      "eam_": 2430,
      "sc": 2431,
      "word": 2432,
      "i166": 2433,
      "i377": 2434,
      "i344": 2435,
      "1339": 2436,
      "var39": 2437,
      "var83": 2438,
      "i218": 2439,
      "i200": 2440,
      "i294": 2441,
      "stream_": 2442,
      "tream": 2443,
      "_ZN12Falltergeist6Format3Dat": 2444,
      "6Stream": 2445,
      "e6handleI": 2446,
      "_ZN11opencascade6handleI": 2447,
      "_ZN12Falltergeist6Format3Dat6Stream": 2448,
      "013": 2449,
      "212": 2450,
      "653": 2451,
      "ir": 2452,
      "i329": 2453,
      ">..": 2454,
      "func180": 2455,
      "pre2": 2456,
      "trunc10": 2457,
      "freeze": 2458,
      "not22": 2459,
      "249": 2460,
      "260": 2461,
      "i225": 2462,
      "i182": 2463,
      "i191": 2464,
      "i258": 2465,
      "i292": 2466,
      "12regex_traitsIcNS_": 2467,
      "_buff": 2468,
      "4_": 2469,
      "dist": 2470,
      "fl": 2471,
      "v59": 2472,
      "v47": 2473,
      "286": 2474,
      "func211": 2475,
      "trunc44": 2476,
      "1072": 2477,
      "exit70": 2478,
      "i359": 2479,
      "i370": 2480,
      "138": 2481,
      "4890": 2482,
      "400": 2483,
      "554": 2484,
      "type_": 2485,
      "i248": 2486,
      "i194": 2487,
      "i198": 2488,
      "i204": 2489,
      "_St": 2490,
      "i260": 2491,
      "i300": 2492,
      "i253": 2493,
      "_result": 2494,
      "p_i": 2495,
      "stream_word": 2496,
      "12regex_traitsIcNS_16cpp_regex_traitsIcEEEE": 2497,
      "1_": 2498,
      "1104": 2499,
      "3311": 2500,
      "4155": 2501,
      "4599": 2502,
      "536": 2503,
      "7105": 2504,
      "7248": 2505,
      "ug": 2506,
      "2851": 2507,
      "3172": 2508,
      "i163": 2509,
      "1265": 2510,
      "1547": 2511,
      "exit36": 2512,
      "i343": 2513,
      "1343": 2514,
      "1117": 2515,
      "1181": 2516,
      "1761": 2517,
      "1487": 2518,
      "2655": 2519,
      "5965": 2520,
      "254": 2521,
      "i438": 2522,
      "2049": 2523,
      "4463": 2524,
      "4812": 2525,
      "4531": 2526,
      "4009": 2527,
      "4737": 2528,
      "3589": 2529,
      "5563": 2530,
      "3729": 2531,
      "5769": 2532,
      "func254": 2533,
      "3864": 2534,
      "7969": 2535,
      "7822": 2536,
      "7677": 2537,
      "i303": 2538,
      "7534": 2539,
      "3445": 2540,
      "4394": 2541,
      "7391": 2542,
      "5Q": 2543,
      "RKS": 2544,
      "_or_": 2545,
      "late": 2546,
      "v31": 2547,
      "IN5boost": 2548,
      "i171": 2549,
      "ext8": 2550,
      "167": 2551,
      "pre49": 2552,
      "i160": 2553,
      "exit3": 2554,
      "exit49": 2555,
      "i367": 2556,
      "174": 2557,
      "175": 2558,
      "266": 2559,
      "193": 2560,
      "var55": 2561,
      "666": 2562,
      "ush_buff": 2563,
      "irI": 2564,
      "flush_buff": 2565,
      "flush_buffer": 2566,
      "545": 2567,
      ">::": 2568,
      "Co": 2569,
      "i322": 2570,
      "insert4": 2571,
      "func186": 2572,
      "281": 2573,
      "ation": 2574,
      "smin": 2575,
      "308": 2576,
      "i346": 2577,
      "var46": 2578,
      "unpack4": 2579,
      "183": 2580,
      "200": 2581,
      "335": 2582,
      "func194": 2583,
      "604": 2584,
      "_cre": 2585,
      "i172": 2586,
      "i313": 2587,
      "v105": 2588,
      "1e": 2589,
      "581": 2590,
      "6f": 2591,
      "627": 2592,
      "8e7": 2593,
      "Pa3m": 2594,
      "RPa3m": 2595,
      "SV": 2596,
      "afe": 2597,
      "bec": 2598,
      "bafe": 2599,
      "car": 2600,
      "count": 2601,
      "eed": 2602,
      "uint": 2603,
      "toon": 2604,
      "debec": 2605,
      "func225": 2606,
      "12debec": 2607,
      "i364": 2608,
      "i363": 2609,
      "1361": 2610,
      "41eed": 2611,
      "198": 2612,
      "e0bafe": 2613,
      "i437": 2614,
      "func187": 2615,
      "func196": 2616,
      "4712debec": 2617,
      "func256": 2618,
      "var91": 2619,
      "var98": 2620,
      "a341eed": 2621,
      "b5e0bafe": 2622,
      "dereferenceable_or_": 2623,
      "i235": 2624,
      "_ZNSt12_": 2625,
      "i283": 2626,
      "plug": 2627,
      "NS_12regex_traitsIcNS_16cpp_regex_traitsIcEEEE": 2628,
      "1e4712debec": 2629,
      "RPa3m8e7": 2630,
      "SVRPa3m8e7": 2631,
      "cartoon": 2632,
      "1361a341eed": 2633,
      "b5e0bafe1e4712debec": 2634,
      "dereferenceable_or_null": 2635,
      "plugins": 2636,
      "1361a341eedb5e0bafe1e4712debec": 2637,
      "1361a341eedb5e0bafe1e4712debec6f": 2638,
      "_m": 2639,
      "i323": 2640,
      "var80": 2641,
      "i142": 2642,
      "283": 2643,
      "func248": 2644,
      "1070": 2645,
      "tag": 2646,
      "exit59": 2647,
      "i390": 2648,
      "shar": 2649,
      "250": 2650,
      "func189": 2651,
      "func200": 2652,
      "i302": 2653,
      "lcssa1": 2654,
      "sink16": 2655,
      "i293": 2656,
      "i272": 2657,
      "translate": 2658,
      "va_start": 2659,
      "va_end": 2660,
      "9sub_matchIS": 2661,
      "_ZNSt12_Vector": 2662,
      "9_S": 2663,
      "ix": 2664,
      "v86": 2665,
      "v48": 2666,
      "ver_": 2667,
      "328": 2668,
      "329": 2669,
      "inct": 2670,
      "insert72": 2671,
      "278": 2672,
      "1005": 2673,
      "exit34": 2674,
      "i383": 2675,
      "251": 2676,
      "var81": 2677,
      "func258": 2678,
      "func262": 2679,
      "i264": 2680,
      "i226": 2681,
      "v127": 2682,
      "v106": 2683,
      "_ZNSt7__cxx1112basic_stringIcSt11char_traitsIcESaIcEEC2E": 2684,
      "trunc611": 2685,
      "distinct": 2686,
      "218": 2687,
      "411": 2688,
      "759": 2689,
      "7_object": 2690,
      "953": 2691,
      "b_": 2692,
      "ode": 2693,
      "rule": 2694,
      "648": 2695,
      "insert11": 2696,
      "func264": 2697,
      "func217": 2698,
      "exit9": 2699,
      "exit12": 2700,
      "exit77": 2701,
      "exit47": 2702,
      "exit69": 2703,
      "not23": 2704,
      "unpack14": 2705,
      "func181": 2706,
      "898": 2707,
      "469": 2708,
      "4681": 2709,
      "i211": 2710,
      "phes": 2711,
      "_SH": 2712,
      "i278": 2713,
      "i445347": 2714,
      "tree": 2715,
      "G_S": 2716,
      "T0_": 2717,
      "line": 2718,
      "op": 2719,
      "os": 2720,
      "unk": 2721,
      "ard_": 2722,
      "ity": 2723,
      "trunc20": 2724,
      "exit29": 2725,
      "exit22": 2726,
      "exit66": 2727,
      "exit51": 2728,
      "i360": 2729,
      "i371": 2730,
      "807": 2731,
      "595": 2732,
      "var67": 2733,
      "390": 2734,
      "us49": 2735,
      "i691": 2736,
      "i231": 2737,
      "i230": 2738,
      "i185": 2739,
      "i269": 2740,
      "multi": 2741,
      "PKcRKS": 2742,
      "EP7_object": 2743,
      "_ZNSt7__cxx1112basic_stringIcSt11char_traitsIcESaIcEEC2EPKcRKS": 2744,
      "_ZNSt7__cxx1112basic_stringIcSt11char_traitsIcESaIcEEC2EPKcRKS3_": 2745,
      "016": 2746,
      "018": 2747,
      "180": 2748,
      "415": 2749,
      "438": 2750,
      "4111": 2751,
      "956": 2752,
      "Sc": 2753,
      "ii": 2754,
      "v36": 2755,
      "v49": 2756,
      "v87": 2757,
      "v68": 2758,
      "var59": 2759,
      "166": 2760,
      "orted": 2761,
      "func255": 2762,
      "var184": 2763,
      "shift64": 2764,
      "i347": 2765,
      "ressorted": 2766,
      "265": 2767,
      "unpack110": 2768,
      "i436": 2769,
      "297": 2770,
      "var61": 2771,
      "_ZSt": 2772,
      "cond24": 2773,
      "499": 2774,
      "_ZN5Q": 2775,
      "992": 2776,
      "i244": 2777,
      "ph13": 2778,
      "NSt7__cxx1112basic_stringIcSt11char_traitsIcESaIcEEE": 2779,
      "IN9__gnu_cxx17__normal_iteratorIPKcNSt7__cxx1112basic_stringIcSt11char_traitsIcESaIcEEEEESa": 2780,
      "_Rb_": 2781,
      "_Vector_base": 2782,
      "sink1680": 2783,
      "_Rb_tree": 2784,
      "_EEEE": 2785,
      "_tag": 2786,
      "fc": 2787,
      "table": 2788,
      "ve": 2789,
      "320": 2790,
      "i327": 2791,
      "insta": 2792,
      "insert23": 2793,
      "ext10": 2794,
      "func259": 2795,
      "303": 2796,
      "i352": 2797,
      "i338": 2798,
      "i373": 2799,
      "constr": 2800,
      "192": 2801,
      "var60": 2802,
      "var79": 2803,
      "905": 2804,
      "var99": 2805,
      "387": 2806,
      "i232": 2807,
      "i213": 2808,
      "i246": 2809,
      "i262": 2810,
      "var169": 2811,
      "_regex": 2812,
      "i408": 2813,
      "basic_regex": 2814,
      "ERS": 2815,
      "exit192": 2816,
      "!{!\"": 2817,
      "pairI": 2818,
      "server_": 2819,
      "INS_9sub_matchIS": 2820,
      "_ZN5QList": 2821,
      "construct": 2822,
      "959": 2823,
      "979": 2824,
      "nfc": 2825,
      "t12": 2826,
      "3136": 2827,
      "func214": 2828,
      "var189": 2829,
      "1014": 2830,
      "1018": 2831,
      "1057": 2832,
      "1008": 2833,
      "i167": 2834,
      "305": 2835,
      "1212": 2836,
      "exit50": 2837,
      "i341": 2838,
      "not5": 2839,
      "not12": 2840,
      "253": 2841,
      "2529": 2842,
      "unpack10": 2843,
      "unpack99": 2844,
      "unpack95": 2845,
      "unpack187": 2846,
      "unpack114": 2847,
      "unpack369": 2848,
      "184": 2849,
      "i433": 2850,
      "2339": 2851,
      "func185": 2852,
      "4761": 2853,
      "i524": 2854,
      "func283": 2855,
      "506": 2856,
      "func273": 2857,
      "shrunk": 2858,
      "EEv": 2859,
      "cond3": 2860,
      "i259": 2861,
      "i265": 2862,
      "i290": 2863,
      "unpack2120": 2864,
      "unpack2777": 2865,
      "unpack2704": 2866,
      "unpack2708": 2867,
      "unpack3077": 2868,
      "unpack3081": 2869,
      "unpack3004": 2870,
      "unpack3008": 2871,
      "unpack2850": 2872,
      "unpack2854": 2873,
      "unpack3227": 2874,
      "unpack3223": 2875,
      "unpack2927": 2876,
      "unpack3154": 2877,
      "unpack515": 2878,
      "unpack519": 2879,
      "unpack738": 2880,
      "loom": 2881,
      "4773": 2882,
      "unpack446": 2883,
      "add_rule": 2884,
      "St4pairI": 2885,
      "ed_ptr": 2886,
      "_create": 2887,
      "shared_ptr": 2888,
      "_SH_SH": 2889,
      "instance": 2890,
      "Con": 2891,
      "Di": 2892,
      "Hh": 2893,
      "ap": 2894,
      "en": 2895,
      "nd_": 2896,
      "v57": 2897,
      "v69": 2898,
      "324": 2899,
      "regex": 2900,
      "insert10": 2901,
      "insert21": 2902,
      "288": 2903,
      "276": 2904,
      "i355": 2905,
      "i428": 2906,
      "237": 2907,
      "select71": 2908,
      "func238": 2909,
      "var96": 2910,
      "_ZN5boost": 2911,
      "i305": 2912,
      "i251": 2913,
      "i254": 2914,
      "i311": 2915,
      "exit712": 2916,
      "9_S9_S": 2917,
      "G_SG_S": 2918,
      "231": 2919,
      "836": 2920,
      "834": 2921,
      "910": 2922,
      "_sy": 2923,
      "aD": 2924,
      "pac": 2925,
      "v46": 2926,
      "zsc": 2927,
      "3251": 2928,
      "err": 2929,
      "insert6": 2930,
      "2823": 2931,
      "capac": 2932,
      "func266": 2933,
      "273": 2934,
      "1086": 2935,
      "1044": 2936,
      "1096": 2937,
      "12_M_": 2938,
      "exit57": 2939,
      "exit583": 2940,
      "i330": 2941,
      "i334": 2942,
      "i362": 2943,
      "i372": 2944,
      "not10": 2945,
      "173": 2946,
      "179": 2947,
      "2425": 2948,
      "261": 2949,
      "2610": 2950,
      "5937": 2951,
      "7761": 2952,
      "2547": 2953,
      "var47": 2954,
      "var48": 2955,
      "i430": 2956,
      "i414": 2957,
      "2384": 2958,
      "2998": 2959,
      "3390": 2960,
      "4817": 2961,
      "var65": 2962,
      "4091": 2963,
      "3949": 2964,
      "4784": 2965,
      "var76": 2966,
      "3529": 2967,
      "3669": 2968,
      "i669": 2969,
      "5724": 2970,
      "func253": 2971,
      "func243": 2972,
      "func268": 2973,
      "7044": 2974,
      "6112": 2975,
      "__capac": 2976,
      "i216": 2977,
      "i220": 2978,
      "7616": 2979,
      "7330": 2980,
      "v215": 2981,
      "St7__cxx1112basic_stringIcSt11char_traitsIcESaIcEE": 2982,
      "unpack2124": 2983,
      "unpack2257": 2984,
      "i315": 2985,
      "2309": 2986,
      "_M_create": 2987,
      "unpack2781": 2988,
      "unpack2923": 2989,
      "unpack3150": 2990,
      "6897": 2991,
      "i502": 2992,
      "7187": 2993,
      "unpack588": 2994,
      "unpack734": 2995,
      "_ZNSt7__cxx1112basic_stringIcSt11char_traitsIcESaIcEE12_M_": 2996,
      "7473": 2997,
      "7904": 2998,
      "unpack442": 2999,
      "unpack661": 3000,
      "unpack665": 3001,
      "4800": 3002,
      "2268": 3003,
      "unpack373": 3004,
      "unpack183": 3005,
      "unpack592": 3006,
      "unpack2261": 3007,
      "3809": 3008,
      "NS_12regex_traitsIcNS_16cpp_regex_traitsIcEEEEE": 3009,
      "EEvT_S": 3010,
      "zscii": 3011,
      "__capacity": 3012,
      "_ZNSt7__cxx1112basic_stringIcSt11char_traitsIcESaIcEE12_M_construct": 3013,
      "1D": 3014,
      "3ad": 3015,
      "4dd": 3016,
      "7f": 3017,
      "989": 3018,
      "MM": 3019,
      "TDi": 3020,
      "bloom": 3021,
      "b7f": 3022,
      "dc0": 3023,
      "v28": 3024,
      "i320": 3025,
      "func218": 3026,
      "func245": 3027,
      "func222": 3028,
      "trunc27": 3029,
      "trunc29": 3030,
      "exit33": 3031,
      "exit45": 3032,
      "exit79": 3033,
      "i337": 3034,
      "i452": 3035,
      "i4337": 3036,
      "func183": 3037,
      "func192": 3038,
      "i518": 3039,
      "9f4f": 3040,
      "func284": 3041,
      "func260": 3042,
      "peeled": 3043,
      "i217": 3044,
      "i229": 3045,
      "f6989": 3046,
      "i240": 3047,
      "i249": 3048,
      "76dc0": 3049,
      "95595": 3050,
      "umax": 3051,
      "901b7f": 3052,
      "INS0_": 3053,
      "EP7_objectb": 3054,
      "IN9__gnu_cxx17__normal_iteratorIPKcNSt7__cxx1112basic_stringIcSt11char_traitsIcESaIcEEEEESaINS_9sub_matchIS": 3055,
      "Hh1D": 3056,
      "3ad76dc0": 3057,
      "4dd7": 3058,
      "MMTDi": 3059,
      "9f4f95595": 3060,
      "f6989901b7f": 3061,
      "Hh1Da": 3062,
      "3ad76dc09f4f95595": 3063,
      "MMTDiHh1Da": 3064,
      "f6989901b7f4dd7": 3065,
      "3ad76dc09f4f95595f6989901b7f4dd7": 3066,
      "010": 3067,
      "5Event": 3068,
      "_to": 3069,
      "aS": 3070,
      "hs": 3071,
      "sat": 3072,
      "t13": 3073,
      "usub": 3074,
      "v84": 3075,
      "function": 3076,
      "in70": 3077,
      "287": 3078,
      "ext7": 3079,
      "ext19": 3080,
      "ext21": 3081,
      "num": 3082,
      "func277": 3083,
      "func236": 3084,
      "307": 3085,
      "exit55": 3086,
      "i333": 3087,
      "i345": 3088,
      "148": 3089,
      "263": 3090,
      "var45": 3091,
      "39129": 3092,
      "func271": 3093,
      "i245": 3094,
      "i267": 3095,
      "i308": 3096,
      "i233": 3097,
      "i255": 3098,
      "_traitsI": 3099,
      "v114": 3100,
      "v161": 3101,
      "ERmm": 3102,
      "_SB_SB_SB_SB": 3103,
      "_ZN2Py6Object": 3104,
      "_ZNSt7__cxx1112basic_stringIcSt11char_traitsIcESaIcEE9_M_create": 3105,
      "type_name": 3106,
      "ixEm": 3107,
      "_ZNSt7__cxx1112basic_stringIcSt11char_traitsIcESaIcEE9_M_createERmm": 3108,
      "i256": 3109,
      "que": 3110,
      "sre": 3111,
      "ind": 3112,
      "IN5boost13re_detail_500": 3113,
      "var64": 3114,
      "lement": 3115,
      "313": 3116,
      "func252": 3117,
      "func257": 3118,
      "func290": 3119,
      "var159": 3120,
      "i339": 3121,
      "i351": 3122,
      "var44": 3123,
      "func204": 3124,
      "358": 3125,
      "func221": 3126,
      "func280": 3127,
      "func289": 3128,
      "func265": 3129,
      "i261": 3130,
      "i239": 3131,
      "i252": 3132,
      "i221": 3133,
      "i501": 3134,
      "match_result": 3135,
      "IN9__gnu_cxx17__normal_iteratorIPKcNSt7__cxx1112basic_stringIcSt11char_traitsIcESaIcEEEEEE": 3136,
      "_impl": 3137,
      "_implement": 3138,
      "IN5boost9sub_match": 3139,
      "srem": 3140,
      "match_results": 3141,
      "_implementation": 3142,
      ")),": 3143,
      "014": 3144,
      "019": 3145,
      "2_": 3146,
      "219": 3147,
      ">\"": 3148,
      "OT": 3149,
      "ey": 3150,
      "md": 3151,
      "ng": 3152,
      "tv": 3153,
      "t46": 3154,
      "v32": 3155,
      "ward_": 3156,
      "in8": 3157,
      "INSt7__cxx1112basic_stringIcSt11char_traitsIcESaIcEE": 3158,
      "var77": 3159,
      "insert5": 3160,
      "insert532": 3161,
      "285": 3162,
      "func224": 3163,
      "func223": 3164,
      "ste": 3165,
      "151": 3166,
      "exit88": 3167,
      "exit73": 3168,
      "i374": 3169,
      "not8": 3170,
      "var40": 3171,
      "i480": 3172,
      "202": 3173,
      "20for": 3174,
      "var62": 3175,
      "var63": 3176,
      "func195": 3177,
      "func198": 3178,
      "func199": 3179,
      "i685": 3180,
      "func246": 3181,
      "func286": 3182,
      "func261": 3183,
      "i700": 3184,
      "func292": 3185,
      "i192": 3186,
      "i301": 3187,
      "i236": 3188,
      "i257": 3189,
      "i286": 3190,
      "i392": 3191,
      "iterator_tag": 3192,
      "p_tv": 3193,
      "16cpp_regex_traitsIcE": 3194,
      "i4451": 3195,
      "_ZNK5boost": 3196,
      "E8E": 3197,
      "_St20for": 3198,
      "tableidx": 3199,
      "IN5boost9sub_matchIN9__gnu_cxx17__normal_iteratorIPKcNSt7__cxx1112basic_stringIcSt11char_traitsIcESaIcEEEEEE": 3200,
      "ward_iterator_tag": 3201,
      "_St20forward_iterator_tag": 3202,
      "348": 3203,
      "5_": 3204,
      "Ei": 3205,
      "Key": 3206,
      "et": 3207,
      "lhs": 3208,
      "v128": 3209,
      "v39": 3210,
      "v120": 3211,
      "abs": 3212,
      "get_b": 3213,
      "func231": 3214,
      "func227": 3215,
      "func226": 3216,
      "func241": 3217,
      "func220": 3218,
      "func239": 3219,
      "exit91": 3220,
      "i358": 3221,
      "i376": 3222,
      "245": 3223,
      "597": 3224,
      "i489": 3225,
      "i496": 3226,
      "func190": 3227,
      "var75": 3228,
      "i505": 3229,
      "func250": 3230,
      "func242": 3231,
      "func287": 3232,
      "func267": 3233,
      "func270": 3234,
      "func278": 3235,
      "func279": 3236,
      "cond5": 3237,
      "i214": 3238,
      "i291": 3239,
      "i284": 3240,
      "i317": 3241,
      "i3740": 3242,
      "exit709": 3243,
      "_to_": 3244,
      "_ZNK5boost16cpp_regex_traitsIcE": 3245,
      "get_bits": 3246,
      "211": 3247,
      "224": 3248,
      ">()": 3249,
      "D_EE": 3250,
      "cost": 3251,
      "pp": 3252,
      "pli": 3253,
      "w_": 3254,
      "inline": 3255,
      "node": 3256,
      "func230": 3257,
      "func244": 3258,
      "func229": 3259,
      "func247": 3260,
      "shift6": 3261,
      "shift8": 3262,
      "309": 3263,
      "exit48": 3264,
      "exit53": 3265,
      "exit182": 3266,
      "i380": 3267,
      "read_": 3268,
      "not20": 3269,
      "var38": 3270,
      "i471": 3271,
      "336": 3272,
      "var66": 3273,
      "func197": 3274,
      "func201": 3275,
      "func202": 3276,
      "479": 3277,
      "us15": 3278,
      "i612": 3279,
      "i678": 3280,
      "i695": 3281,
      "i531": 3282,
      "func285": 3283,
      "func307": 3284,
      "func272": 3285,
      "func275": 3286,
      "func276": 3287,
      "i224": 3288,
      "i306": 3289,
      "var167": 3290,
      "i298": 3291,
      "i281": 3292,
      "i287": 3293,
      "i289": 3294,
      "i271": 3295,
      "i279": 3296,
      "_str": 3297,
      "print": 3298,
      "exit160": 3299,
      "trunc615": 3300,
      "_ZNKSt": 3301,
      "multipli": 3302,
      "multiplier": 3303,
      "015": 3304,
      "359": 3305,
      "Pro": 3306,
      "Re": 3307,
      "fd": 3308,
      "y_": 3309,
      "327": 3310,
      "var86": 3311,
      ">..<": 3312,
      "insert9": 3313,
      "insert70": 3314,
      "func228": 3315,
      "func210": 3316,
      "func212": 3317,
      "func233": 3318,
      "func240": 3319,
      "var147": 3320,
      "trunc38": 3321,
      "shift31": 3322,
      "306": 3323,
      "exit56": 3324,
      "exit76": 3325,
      "exit75": 3326,
      "exit687": 3327,
      "i389": 3328,
      "i349": 3329,
      "i387": 3330,
      "send_": 3331,
      "i422": 3332,
      "func191": 3333,
      "func205": 3334,
      "func207": 3335,
      "func209": 3336,
      "375": 3337,
      "i517": 3338,
      "func251": 3339,
      "var107": 3340,
      "func282": 3341,
      "func263": 3342,
      "func269": 3343,
      "func300": 3344,
      "func302": 3345,
      "i276": 3346,
      "i314": 3347,
      "i590": 3348,
      "ESaISD_EE": 3349,
      "_Vector_impl": 3350,
      "IPc": 3351,
      "_to_zscii": 3352,
      "559": 3353,
      "Ite": 3354,
      "RK": 3355,
      "c_": 3356,
      "cmp": 3357,
      "mux": 3358,
      "next": 3359,
      "v25": 3360,
      "v58": 3361,
      "v71": 3362,
      "insert8": 3363,
      "func213": 3364,
      "func235": 3365,
      "func237": 3366,
      "270": 3367,
      "var186": 3368,
      "var122": 3369,
      "var154": 3370,
      "shift43": 3371,
      "302": 3372,
      "exit58": 3373,
      "i332": 3374,
      "unpack11": 3375,
      "i421": 3376,
      "func203": 3377,
      "us13": 3378,
      "select66": 3379,
      "select67": 3380,
      "select65": 3381,
      "5511": 3382,
      "var85": 3383,
      "i533": 3384,
      "func249": 3385,
      "func234": 3386,
      "func288": 3387,
      "func293": 3388,
      "496": 3389,
      "ph14": 3390,
      "ph308": 3391,
      "i297": 3392,
      "i402": 3393,
      "v93": 3394,
      "_ZNSt16allocator": 3395,
      "v119": 3396,
      "v173": 3397,
      "aDs": 3398,
      "EEvT_S7": 3399,
      "_ZNSt7__cxx1112basic_stringIcSt11char_traitsIcESaIcEE12_M_constructIPc": 3400,
      "IN5boost9sub_matchIN9__gnu_cxx17__normal_iteratorIPKcNSt7__cxx1112basic_stringIcSt11char_traitsIcESaIcEEEEEEESaISD_EE": 3401,
      "_ZNK5boost16cpp_regex_traitsIcE9": 3402,
      "Item": 3403,
      "_ZNSt16allocator_traitsI": 3404,
      "_ZNSt7__cxx1112basic_stringIcSt11char_traitsIcESaIcEE12_M_constructIPcEEvT_S7": 3405,
      "6uint": 3406,
      "ISt": 3407,
      "Sm": 3408,
      "ipt": 3409,
      "put": 3410,
      "uc": 3411,
      "uge": 3412,
      "insert3": 3413,
      "func232": 3414,
      "var125": 3415,
      "var157": 3416,
      "trunc7": 3417,
      "trunc36": 3418,
      "301": 3419,
      "exit65": 3420,
      "exit120": 3421,
      "i368": 3422,
      "i365": 3423,
      "181": 3424,
      "i458": 3425,
      "i474": 3426,
      "292": 3427,
      "func206": 3428,
      "func208": 3429,
      "select3": 3430,
      "i656": 3431,
      "i676": 3432,
      "var104": 3433,
      "func281": 3434,
      "i713": 3435,
      "343": 3436,
      "func291": 3437,
      "func297": 3438,
      "func298": 3439,
      "func301": 3440,
      "func274": 3441,
      "func313": 3442,
      "func314": 3443,
      "i202": 3444,
      "i266": 3445,
      "i295": 3446,
      "b4K": 3447,
      "i275": 3448,
      "i277": 3449,
      "i393": 3450,
      "inited": 3451,
      "C2EP7_objectb": 3452,
      "test": 3453,
      "exit205": 3454,
      "exit321": 3455,
      "allocateERS": 3456,
      "ERKNS_": 3457,
      "_ZN12Falltergeist6Format3Dat6Stream6uint": 3458,
      "index": 3459,
      "_ZNSt7__cxx1112basic_stringIcSt11char_traitsIcESaIcEE12_M_constructIPcEEvT_S7_St20forward_iterator_tag": 3460,
      "Smb4K": 3461,
      "429": 3462,
      "520": 3463,
      "548": 3464,
      "Ecb": 3465,
      "ear": 3466,
      "sge": 3467,
      "t19": 3468,
      "wel": 3469,
      "in9": 3470,
      "inject": 3471,
      "ace": 3472,
      "ext5": 3473,
      "ext13": 3474,
      "ext40": 3475,
      "ext88": 3476,
      "pre194": 3477,
      "275": 3478,
      "var132": 3479,
      "var138": 3480,
      "var188": 3481,
      "var185": 3482,
      "shift41": 3483,
      "shift37": 3484,
      "func332": 3485,
      "icode": 3486,
      "300": 3487,
      "exit116": 3488,
      "i350": 3489,
      "i369": 3490,
      "i385": 3491,
      "not11": 3492,
      "176": 3493,
      "267": 3494,
      "598": 3495,
      "i423": 3496,
      "i456": 3497,
      "var56": 3498,
      "474": 3499,
      "select38": 3500,
      "553": 3501,
      "i698": 3502,
      "379": 3503,
      "var89": 3504,
      "var100": 3505,
      "func295": 3506,
      "504": 3507,
      "func303": 3508,
      "func327": 3509,
      "func329": 3510,
      "func312": 3511,
      "func343": 3512,
      "from_": 3513,
      "i270": 3514,
      "i274": 3515,
      "digraph": 3516,
      "PKcm": 3517,
      "jewel": 3518,
      "C2ERKS": 3519,
      "sitofp": 3520,
      "_ZNSt6vectorI": 3521,
      "_ZNSt7__cxx1112basic_stringIcSt11char_traitsIcESaIcEE9_M_": 3522,
      "pre220": 3523,
      "translateEcb": 3524,
      "_ZN2Py6ObjectC2EP7_objectb": 3525,
      "KeyEvent": 3526,
      "Prop": 3527,
      "_ZNK5boost16cpp_regex_traitsIcE9translateEcb": 3528,
      "early": 3529,
      "injectKeyEvent": 3530,
      "5_EE": 3531,
      "629": 3532,
      "ENS_": 3533,
      "_dat": 3534,
      "_node": 3535,
      "bu": 3536,
      "ber": 3537,
      "t17": 3538,
      "use": 3539,
      "v80": 3540,
      "v90": 3541,
      "v53": 3542,
      "v60": 3543,
      "v99": 3544,
      "v95": 3545,
      "v136": 3546,
      "v122": 3547,
      "i328": 3548,
      "erty": 3549,
      "insert128": 3550,
      "284": 3551,
      "ext17": 3552,
      "shift4": 3553,
      "func336": 3554,
      "func337": 3555,
      "exit97": 3556,
      "i356": 3557,
      "i441": 3558,
      "i400": 3559,
      "397": 3560,
      "354": 3561,
      "i634": 3562,
      "i682": 3563,
      "i672": 3564,
      "370": 3565,
      "372": 3566,
      "i511": 3567,
      "i546": 3568,
      "i565": 3569,
      "389": 3570,
      "new_": 3571,
      "func294": 3572,
      "func296": 3573,
      "func299": 3574,
      "func305": 3575,
      "676": 3576,
      "func317": 3577,
      "func319": 3578,
      "i268": 3579,
      "i407": 3580,
      "char_traits": 3581,
      "v109": 3582,
      "pr130": 3583,
      "i571": 3584,
      "v201": 3585,
      "v202": 3586,
      "v205": 3587,
      "v181": 3588,
      "07digraph": 3589,
      "v179": 3590,
      "5boost13re_detail_5007digraph": 3591,
      "allocateEm": 3592,
      "exit356": 3593,
      "_ZNSt12_Vector_baseI": 3594,
      "210": 3595,
      "4104": 3596,
      "5F": 3597,
      "615": 3598,
      "652": 3599,
      "_from_": 3600,
      "oo": 3601,
      "per": 3602,
      "326": 3603,
      "in11": 3604,
      "insert63": 3605,
      "eloo": 3606,
      "282": 3607,
      "asm": 3608,
      "deef": 3609,
      "ext44": 3610,
      "ext61": 3611,
      "less": 3612,
      "271": 3613,
      "274": 3614,
      "var129": 3615,
      "var133": 3616,
      "var135": 3617,
      "var173": 3618,
      "trunc18": 3619,
      "func339": 3620,
      "1024": 3621,
      "12__": 3622,
      "exit8": 3623,
      "exit40": 3624,
      "exit204": 3625,
      "i340": 3626,
      "not13": 3627,
      "not14": 3628,
      "fect": 3629,
      "unpack115": 3630,
      "i467": 3631,
      "pend": 3632,
      "398": 3633,
      "select39": 3634,
      "221": 3635,
      "356": 3636,
      "i525": 3637,
      "i584": 3638,
      "i568": 3639,
      "var103": 3640,
      "func325": 3641,
      "491": 3642,
      "IcNS_12regex_traitsIcNS_16cpp_regex_traitsIcEEEEE": 3643,
      "i238": 3644,
      "i296": 3645,
      "i319": 3646,
      "i555": 3647,
      "i556": 3648,
      "i593": 3649,
      "0_0": 3650,
      "0_4": 3651,
      "promoted47": 3652,
      "exit146": 3653,
      "EPS": 3654,
      "15712": 3655,
      "opeEv": 3656,
      "sideef": 3657,
      "12regex_traitsIcNS0_": 3658,
      "player": 3659,
      "ScopeEv": 3660,
      "_ZN5QListI": 3661,
      "error_": 3662,
      "match_resultsIN9__gnu_cxx17__normal_iteratorIPKcNSt7__cxx1112basic_stringIcSt11char_traitsIcESaIcEEEEESaINS_9sub_matchIS": 3663,
      "_data": 3664,
      "sideeffect": 3665,
      "12regex_traitsIcNS0_16cpp_regex_traitsIcEEEE": 3666,
      "(),": 3667,
      "0a5b": 3668,
      "3f": 3669,
      "432": 3670,
      "4124": 3671,
      "6_": 3672,
      "6de": 3673,
      "620": 3674,
      "All": 3675,
      "Base": 3676,
      "Del": 3677,
      "LTk": 3678,
      "OOT": 3679,
      "Pk": 3680,
      "ROOT": 3681,
      "To": 3682,
      "WLTk": 3683,
      "a47": 3684,
      "bc": 3685,
      "d95": 3686,
      "ea": 3687,
      "f7c": 3688,
      "fbc": 3689,
      "t5": 3690,
      "unicode": 3691,
      "%.,": 3692,
      "insert20": 3693,
      "insert76": 3694,
      "abfbc": 3695,
      "314": 3696,
      "var131": 3697,
      "ition": 3698,
      "trunc12": 3699,
      "trunc41": 3700,
      "trunc45": 3701,
      "func331": 3702,
      "func341": 3703,
      "func335": 3704,
      "func338": 3705,
      "ntax": 3706,
      "exit67": 3707,
      "exit42": 3708,
      "exit62": 3709,
      "exit68": 3710,
      "exit101": 3711,
      "exit113": 3712,
      "exit251": 3713,
      "i366": 3714,
      "i361": 3715,
      "i354": 3716,
      "i382": 3717,
      "lobit": 3718,
      "packet": 3719,
      "i461": 3720,
      "i472": 3721,
      "i493": 3722,
      "205": 3723,
      "473": 3724,
      "368": 3725,
      "i637": 3726,
      "i621": 3727,
      "i650": 3728,
      "i693": 3729,
      "i500": 3730,
      "i744": 3731,
      "func306": 3732,
      "func308": 3733,
      "func309": 3734,
      "func315": 3735,
      "func318": 3736,
      "var165": 3737,
      "i280": 3738,
      "i401": 3739,
      "i409": 3740,
      "96fd": 3741,
      "i418": 3742,
      "6c3f": 3743,
      "209d95": 3744,
      "exit147": 3745,
      "e32y": 3746,
      "delphes": 3747,
      "St4less": 3748,
      "lcssa178": 3749,
      "_ZNSt12_Vector_base": 3750,
      "phesROOT": 3751,
      "os_": 3752,
      "_syntax": 3753,
      "IN5boost9sub_matchIN9__gnu_cxx17__normal_iteratorIPKcNSt7__cxx1112basic_stringIcSt11char_traitsIcESaIcEEEEEEESaISD_EEixEm": 3754,
      "629a47": 3755,
      "0a5b96fd": 3756,
      "Allo": 3757,
      "DelphesROOT": 3758,
      "Pke32y": 3759,
      "WLTkPke32y": 3760,
      "f7cabfbc": 3761,
      "6c3f209d95": 3762,
      "0a5b96fd6c3f209d95": 3763,
      "f7cabfbc629a47": 3764,
      "0a5b96fd6c3f209d95f7cabfbc629a47": 3765,
      "023": 3766,
      "223": 3767,
      "533": 3768,
      "8G": 3769,
      "DS": 3770,
      "Point": 3771,
      "UU": 3772,
      "aUU": 3773,
      "cs": 3774,
      "ha": 3775,
      "t_": 3776,
      "t14": 3777,
      "v81": 3778,
      "v78": 3779,
      "v74": 3780,
      "v65": 3781,
      "v83": 3782,
      "v209": 3783,
      "i321": 3784,
      "var90": 3785,
      "insert24": 3786,
      "insert60": 3787,
      "cate": 3788,
      "ext22": 3789,
      "pre8": 3790,
      "var112": 3791,
      "var141": 3792,
      "var118": 3793,
      "var145": 3794,
      "var187": 3795,
      "var151": 3796,
      "var182": 3797,
      "func344": 3798,
      "exit5": 3799,
      "exit90": 3800,
      "exit72": 3801,
      "exit112": 3802,
      "exit439": 3803,
      "exit110": 3804,
      "i375": 3805,
      "1342": 3806,
      "tion_": 3807,
      "phics": 3808,
      "poDS": 3809,
      "unpack3": 3810,
      "unpack15": 3811,
      "unpack111": 3812,
      "unpack100": 3813,
      "1836": 3814,
      "i412": 3815,
      "i459": 3816,
      "2048": 3817,
      "2004": 3818,
      "2994": 3819,
      "4569": 3820,
      "402": 3821,
      "405": 3822,
      "392": 3823,
      "394": 3824,
      "4736": 3825,
      "select70": 3826,
      "var73": 3827,
      "var74": 3828,
      "5529": 3829,
      "i624": 3830,
      "i687": 3831,
      "i671": 3832,
      "i665": 3833,
      "i692": 3834,
      "raphics": 3835,
      "i577": 3836,
      "i506": 3837,
      "i719": 3838,
      "i722": 3839,
      "i704": 3840,
      "func304": 3841,
      "func324": 3842,
      "5347": 3843,
      "v164": 3844,
      "St10": 3845,
      "i312": 3846,
      "unpack2778": 3847,
      "unpack2782": 3848,
      "unpack2705": 3849,
      "unpack2709": 3850,
      "unpack3078": 3851,
      "unpack3082": 3852,
      "unpack3005": 3853,
      "unpack3009": 3854,
      "v100": 3855,
      "unpack3228": 3856,
      "unpack3224": 3857,
      "unpack2928": 3858,
      "unpack2924": 3859,
      "unpack3155": 3860,
      "unpack3151": 3861,
      "i4348": 3862,
      "i599": 3863,
      "i503": 3864,
      "unpack520": 3865,
      "unpack589": 3866,
      "v117": 3867,
      "unpack739": 3868,
      "unpack735": 3869,
      "v168": 3870,
      "v169": 3871,
      "place": 3872,
      "_ZN12Falltergeist2": 3873,
      "v182": 3874,
      "exit161": 3875,
      "exit168": 3876,
      "exit198": 3877,
      "p_bu": 3878,
      "unpack447": 3879,
      "v137": 3880,
      "unpack370": 3881,
      "unpack188": 3882,
      "er_add_": 3883,
      "v402": 3884,
      "NS0_12regex_traitsIcNS0_16cpp_regex_traitsIcEEEE": 3885,
      "i4173": 3886,
      "_ZN2Py4": 3887,
      "ERKNSt7__cxx1112basic_stringIcSt11char_traitsIcESaIcEEE": 3888,
      "player_add_": 3889,
      "_ZN11opencascade6handleI13": 3890,
      "Property": 3891,
      "12__shared_ptr": 3892,
      "TopoDS": 3893,
      "unicode_to_zscii": 3894,
      "8Graphics": 3895,
      "exit4391": 3896,
      "p_buf": 3897,
      "player_add_info": 3898,
      "3_EE": 3899,
      "8_Rb_tree": 3900,
      "A8": 3901,
      "Emm": 3902,
      "ag": 3903,
      "ault": 3904,
      "du": 3905,
      "gist": 3906,
      "iable": 3907,
      "min": 3908,
      "xfor": 3909,
      "variable": 3910,
      "expre": 3911,
      "insert50": 3912,
      "ext11": 3913,
      "ext68": 3914,
      "long": 3915,
      "default": 3916,
      "var164": 3917,
      "var124": 3918,
      "var137": 3919,
      "var194": 3920,
      "named_sub": 3921,
      "ons": 3922,
      "trunc26": 3923,
      "trunc19": 3924,
      "func330": 3925,
      "exit80": 3926,
      "exit81": 3927,
      "exit43": 3928,
      "exit259": 3929,
      "i388": 3930,
      "i353": 3931,
      "14re": 3932,
      "i413": 3933,
      "i426": 3934,
      "i450": 3935,
      "i497": 3936,
      "20named_sub": 3937,
      "453": 3938,
      "var68": 3939,
      "522": 3940,
      "ssions": 3941,
      "i615": 3942,
      "i677": 3943,
      "i679": 3944,
      "i587": 3945,
      "i504": 3946,
      "var95": 3947,
      "func321": 3948,
      "func323": 3949,
      "func328": 3950,
      "func342": 3951,
      "_ZN5T": 3952,
      "type_string": 3953,
      "lcssa2": 3954,
      "i288": 3955,
      "_replace": 3956,
      "var192": 3957,
      "i570": 3958,
      "gex_traits": 3959,
      "i602": 3960,
      "i701": 3961,
      "str_replace": 3962,
      "exit148": 3963,
      "exit135": 3964,
      "cpp_regex_traits": 3965,
      "exit214": 3966,
      "exit220": 3967,
      "IN9__gnu_cxx17__normal_iteratorIPKcNSt7__cxx1112basic_stringIcSt11char_traitsIcESaIcEEEEE": 3968,
      "exit460": 3969,
      "exit381": 3970,
      "server_type_string": 3971,
      "v465": 3972,
      "expressions": 3973,
      "20named_subexpressions": 3974,
      "_ZN5TLock": 3975,
      "0f": 3976,
      "017": 3977,
      "1B": 3978,
      "2104": 3979,
      "316": 3980,
      "3310": 3981,
      "3808": 3982,
      "3e8": 3983,
      "4154": 3984,
      "4667": 3985,
      "4598": 3986,
      "517": 3987,
      "5uint": 3988,
      "6108": 3989,
      "713": 3990,
      "7104": 3991,
      "7247": 3992,
      "7329": 3993,
      "7898": 3994,
      "7324": 3995,
      "7676": 3996,
      "8Ev": 3997,
      "946": 3998,
      "A80": 3999,
      "A1B": 4000,
      "Df": 4001,
      "E909": 4002,
      "EC2E": 4003,
      "Kt": 4004,
      "LQ": 4005,
      "Yze": 4006,
      "_constant": 4007,
      "af": 4008,
      "a35": 4009,
      "c567": 4010,
      "eg": 4011,
      "f474": 4012,
      "micmp": 4013,
      "t24": 4014,
      "try": 4015,
      "3245": 4016,
      "3250": 4017,
      "32a35": 4018,
      "in10": 4019,
      "in14": 4020,
      "insert16": 4021,
      "insert13": 4022,
      "insert26": 4023,
      "i1161": 4024,
      "2819": 4025,
      "2850": 4026,
      "i889": 4027,
      "ext48": 4028,
      "318": 4029,
      "3171": 4030,
      "pre222": 4031,
      "var139": 4032,
      "var181": 4033,
      "var153": 4034,
      "var146": 4035,
      "var143": 4036,
      "var178": 4037,
      "trunc21": 4038,
      "trunc60": 4039,
      "trunc196": 4040,
      "trunc250": 4041,
      "shift9": 4042,
      "shift28": 4043,
      "func316": 4044,
      "func334": 4045,
      "i1618": 4046,
      "uth": 4047,
      "1264": 4048,
      "1546": 4049,
      "exit103": 4050,
      "exit124": 4051,
      "i331": 4052,
      "i391": 4053,
      "not7": 4054,
      "not9": 4055,
      "not16": 4056,
      "1338": 4057,
      "1116": 4058,
      "1180": 4059,
      "1190": 4060,
      "1760": 4061,
      "bb_": 4062,
      "bb_result": 4063,
      "1412": 4064,
      "1486": 4065,
      "2654": 4066,
      "2609": 4067,
      "2604": 4068,
      "outframe": 4069,
      "5964": 4070,
      "5916": 4071,
      "5933": 4072,
      "7755": 4073,
      "7760": 4074,
      "5bc567": 4075,
      "unpack64": 4076,
      "unpack79": 4077,
      "unpack516": 4078,
      "unpack96": 4079,
      "5A429": 4080,
      "i453": 4081,
      "i446": 4082,
      "i451": 4083,
      "20279": 4084,
      "4462": 4085,
      "3389": 4086,
      "3384": 4087,
      "4811": 4088,
      "4889": 4089,
      "48f474": 4090,
      "4530": 4091,
      "406": 4092,
      "4090": 4093,
      "4008": 4094,
      "3948": 4095,
      "3943": 4096,
      "select14": 4097,
      "select69": 4098,
      "select68": 4099,
      "selectcmp": 4100,
      "3528": 4101,
      "3523": 4102,
      "3588": 4103,
      "5534": 4104,
      "5562": 4105,
      "3663": 4106,
      "3668": 4107,
      "i670": 4108,
      "374": 4109,
      "3728": 4110,
      "5718": 4111,
      "5723": 4112,
      "5768": 4113,
      "i537": 4114,
      "i509": 4115,
      "var102": 4116,
      "i766": 4117,
      "i760": 4118,
      "var92": 4119,
      "var93": 4120,
      "var94": 4121,
      "5065": 4122,
      "7040": 4123,
      "cond11": 4124,
      "func311": 4125,
      "893": 4126,
      "7968": 4127,
      "i911": 4128,
      "i1012": 4129,
      "7821": 4130,
      "7186": 4131,
      "i245347": 4132,
      "7610": 4133,
      "7615": 4134,
      "d332a35": 4135,
      "7467": 4136,
      "i237": 4137,
      "sink59": 4138,
      "i2993": 4139,
      "sroa_idx17": 4140,
      "unpack2258": 4141,
      "unpack2125": 4142,
      "unpack2121": 4143,
      "7533": 4144,
      "set_": 4145,
      "91E909": 4146,
      "055bc567": 4147,
      "::$": 4148,
      "unpack2855": 4149,
      "unpack2851": 4150,
      "i419": 4151,
      "6893": 4152,
      "i572": 4153,
      "i574": 4154,
      "7181": 4155,
      "i775": 4156,
      "i703": 4157,
      "2802": 4158,
      "3444": 4159,
      "_ZN12Falltergeist5Event": 4160,
      "i522": 4161,
      "4393": 4162,
      "5boost13match_resultsIN9__gnu_cxx17__normal_iteratorIPKcNSt7__cxx1112basic_stringIcSt11char_traitsIcESaIcEEEEESaINS_9sub_matchIS": 4163,
      "7472": 4164,
      "7903": 4165,
      "dcmt": 4166,
      "dcmicmp": 4167,
      "unpack443": 4168,
      "unpack662": 4169,
      "unpack666": 4170,
      "_by_": 4171,
      "unpack374": 4172,
      "unpack184": 4173,
      "loopexit": 4174,
      "unpack593": 4175,
      "157A1B": 4176,
      "7390": 4177,
      "_option": 4178,
      "unpack2262": 4179,
      "_ZN12Falltergeist6Format3Tx": 4180,
      "3803": 4181,
      "get_param_": 4182,
      "3863": 4183,
      "inframe1": 4184,
      "inframe2": 4185,
      "inframe3": 4186,
      "_ZN12Falltergeist6Format3Dat6Stream5uint": 4187,
      "exit3408": 4188,
      "basic_regex_": 4189,
      "number": 4190,
      "_struct": 4191,
      "_ZNSt16allocator_traitsISa": 4192,
      "_syntax_base": 4193,
      "NS0_12regex_traitsIcNS0_16cpp_regex_traitsIcEEEEEE": 4194,
      "14re_syntax_base": 4195,
      "0f2797": 4196,
      "3e848f474": 4197,
      "A80157A1B": 4198,
      "DfYze": 4199,
      "KtT": 4200,
      "LQDfYze": 4201,
      "af0f2797": 4202,
      "bb_result_struct": 4203,
      "5A4295065": 4204,
      "20279E8E": 4205,
      "d332a35055bc567": 4206,
      "i299359": 4207,
      "91E909A80157A1B": 4208,
      "5boost13match_resultsIN9__gnu_cxx17__normal_iteratorIPKcNSt7__cxx1112basic_stringIcSt11char_traitsIcESaIcEEEEESaINS_9sub_matchISB": 4209,
      "dcmtk": 4210,
      "_ZN12Falltergeist6Format3Dat6Stream5uint8Ev": 4211,
      "3e848f474af0f2797": 4212,
      "LQDfYzeKtT": 4213,
      "5A429506520279E8E": 4214,
      "d332a35055bc5673e848f474af0f2797": 4215,
      "91E909A80157A1B5A429506520279E8E": 4216,
      "035": 4217,
      "610": 4218,
      "7_S": 4219,
      "8_": 4220,
      "Lex": 4221,
      "PN": 4222,
      "S4_": 4223,
      "UI": 4224,
      "_w": 4225,
      "mut": 4226,
      "sel": 4227,
      "v55": 4228,
      "v37": 4229,
      "v61": 4230,
      "v42": 4231,
      "v97": 4232,
      "v63": 4233,
      "v82": 4234,
      "v178": 4235,
      "v222": 4236,
      "insert15": 4237,
      "insert25": 4238,
      "insert19": 4239,
      "insert132": 4240,
      "i898": 4241,
      "ext32": 4242,
      "ext74": 4243,
      "16Ev": 4244,
      "var152": 4245,
      "trunc86": 4246,
      "trunc287": 4247,
      "shift25": 4248,
      "func357": 4249,
      "func353": 4250,
      "sock": 4251,
      "1762": 4252,
      "argv": 4253,
      "i486": 4254,
      "i429": 4255,
      "i481": 4256,
      "i483": 4257,
      "i4178": 4258,
      "var69": 4259,
      "396": 4260,
      "select85": 4261,
      "select83": 4262,
      "var70": 4263,
      "var72": 4264,
      "var78": 4265,
      "i696": 4266,
      "i513": 4267,
      "i542": 4268,
      "i562": 4269,
      "i714": 4270,
      "i743": 4271,
      "i709": 4272,
      "349": 4273,
      "381": 4274,
      "385": 4275,
      "672": 4276,
      "func320": 4277,
      "func322": 4278,
      "func326": 4279,
      "func310": 4280,
      "i1003": 4281,
      "func363": 4282,
      "_cmd": 4283,
      "v212": 4284,
      "v213": 4285,
      "v217": 4286,
      "v218": 4287,
      "v132": 4288,
      "v180": 4289,
      "i309": 4290,
      "_ZNSt8_Rb_tree": 4291,
      "ateEmm": 4292,
      "v101": 4293,
      "v103": 4294,
      "eck": 4295,
      "i550": 4296,
      "i707": 4297,
      "v206": 4298,
      "v207": 4299,
      "v208": 4300,
      "v183": 4301,
      "v172": 4302,
      "p_addr": 4303,
      "_EEE": 4304,
      "exit172": 4305,
      "v134": 4306,
      "v139": 4307,
      "3_E": 4308,
      "_ZN5boost13re_detail_50018": 4309,
      "6ObjectE": 4310,
      "i4339": 4311,
      "_SH_SH_SH_SH": 4312,
      "Config": 4313,
      "append": 4314,
      "9_S9_S9_S9_S": 4315,
      "G_SG_SG_SG_S": 4316,
      "IN5boost13re_detail_50020named_subexpressions": 4317,
      "_ZN12Falltergeist6Format3Dat6Stream6uint16Ev": 4318,
      "_ZNSt7__cxx1112basic_stringIcSt11char_traitsIcESaIcEE9_M_mut": 4319,
      "eloop_": 4320,
      "t5Lex": 4321,
      "_ZN12Falltergeist2UI": 4322,
      "gister_": 4323,
      "variable_option": 4324,
      "_by_number": 4325,
      "_ZN12Falltergeist6Format3Txt5Lex": 4326,
      "ateEmmPKcm": 4327,
      "_ZNSt7__cxx1112basic_stringIcSt11char_traitsIcESaIcEE9_M_mutateEmmPKcm": 4328,
      "_ZN12Falltergeist6Format3Txt5Lexer": 4329,
      "3A": 4330,
      "345": 4331,
      "410": 4332,
      "6append": 4333,
      "EL": 4334,
      "NCo": 4335,
      "_T": 4336,
      "anc": 4337,
      "db": 4338,
      "har": 4339,
      "ique": 4340,
      "sle": 4341,
      "unique": 4342,
      "tr16": 4343,
      "in6": 4344,
      "in12": 4345,
      "IN5boost13re_detail_5007digraph": 4346,
      "i325": 4347,
      "erI": 4348,
      "insert18": 4349,
      "insert44": 4350,
      "insert48": 4351,
      "i1416": 4352,
      "i1315": 4353,
      "i1104": 4354,
      "i1240": 4355,
      "i1991": 4356,
      "i1583": 4357,
      "i1447": 4358,
      "i1293": 4359,
      "llec": 4360,
      "i832": 4361,
      "i810": 4362,
      "i841": 4363,
      "i854": 4364,
      "i876": 4365,
      "i863": 4366,
      "cation": 4367,
      "mask33": 4368,
      "ext1": 4369,
      "ext24": 4370,
      "ext26": 4371,
      "ext126": 4372,
      "i1284": 4373,
      "lose": 4374,
      "312": 4375,
      "var197": 4376,
      "branc": 4377,
      "trunc190": 4378,
      "shift90": 4379,
      "func345": 4380,
      "func340": 4381,
      "func352": 4382,
      "func355": 4383,
      "i1631": 4384,
      "i1666": 4385,
      "i1679": 4386,
      "i1653": 4387,
      "i1609": 4388,
      "var232": 4389,
      "var228": 4390,
      "var230": 4391,
      "var212": 4392,
      "var215": 4393,
      "var224": 4394,
      "var226": 4395,
      "var218": 4396,
      "var220": 4397,
      "var222": 4398,
      "var234": 4399,
      "var200": 4400,
      "exit1": 4401,
      "exit25": 4402,
      "exit99": 4403,
      "exit78": 4404,
      "exit83": 4405,
      "exit315": 4406,
      "exit129": 4407,
      "exit752": 4408,
      "exit236": 4409,
      "exit130": 4410,
      "exit132": 4411,
      "exit227": 4412,
      "exit126": 4413,
      "exit337": 4414,
      "exit186": 4415,
      "i378": 4416,
      "not15": 4417,
      "not18": 4418,
      "not136": 4419,
      "1147": 4420,
      "596": 4421,
      "779": 4422,
      "unpack70": 4423,
      "i415": 4424,
      "i420": 4425,
      "i454": 4426,
      "peat": 4427,
      "var58": 4428,
      "334": 4429,
      "521": 4430,
      "393": 4431,
      "395": 4432,
      "i686": 4433,
      "i654": 4434,
      "i699": 4435,
      "i673": 4436,
      "i609": 4437,
      "376": 4438,
      "var82": 4439,
      "var87": 4440,
      "var88": 4441,
      "var106": 4442,
      "i731": 4443,
      "i788": 4444,
      "i753": 4445,
      "383": 4446,
      "EEE8": 4447,
      "cond4": 4448,
      "i924": 4449,
      "i955": 4450,
      "i981": 4451,
      "i946": 4452,
      "i968": 4453,
      "func354": 4454,
      "i1025": 4455,
      "i1038": 4456,
      "i1060": 4457,
      "i1069": 4458,
      "i1082": 4459,
      "i1091": 4460,
      "func362": 4461,
      "i1811": 4462,
      "i1877": 4463,
      "i1833": 4464,
      "i1855": 4465,
      "i1890": 4466,
      "i1842": 4467,
      "i1912": 4468,
      "i1925": 4469,
      "i1947": 4470,
      "i1956": 4471,
      "i1978": 4472,
      "i1969": 4473,
      "i2013": 4474,
      "_cop": 4475,
      "i1517": 4476,
      "i1526": 4477,
      "i1548": 4478,
      "i1539": 4479,
      "i1561": 4480,
      "i1710": 4481,
      "i1723": 4482,
      "i1745": 4483,
      "i1767": 4484,
      "i1789": 4485,
      "i1754": 4486,
      "_ZNSt12__shared_ptr": 4487,
      "i299": 4488,
      "var203": 4489,
      "var206": 4490,
      "var209": 4491,
      "i310": 4492,
      "i1438": 4493,
      "i1359": 4494,
      "i1218": 4495,
      "pr104": 4496,
      "i554": 4497,
      "i578": 4498,
      "i507": 4499,
      "i777": 4500,
      "i708": 4501,
      "struc": 4502,
      "exit145": 4503,
      "exit167": 4504,
      "C2ERKNSt7__cxx1112basic_stringIcSt11char_traitsIcESaIcEEE": 4505,
      "i1117": 4506,
      "i1394": 4507,
      "exit183": 4508,
      "i1903": 4509,
      "i1174": 4510,
      "i1337": 4511,
      "i1350": 4512,
      "i1644": 4513,
      "i1328": 4514,
      "i1196": 4515,
      "trunc232": 4516,
      "i1148": 4517,
      "i1271": 4518,
      "i1249": 4519,
      "i1372": 4520,
      "i1381": 4521,
      "i1460": 4522,
      "i1262": 4523,
      "i1306": 4524,
      "i1403": 4525,
      "i1776": 4526,
      "i1473": 4527,
      "i1139": 4528,
      "i1701": 4529,
      "i1495": 4530,
      "List6append": 4531,
      "ESaIS3_EE": 4532,
      "i1868": 4533,
      "exit324": 4534,
      "i1596": 4535,
      "i1574": 4536,
      "get_player": 4537,
      "type_id": 4538,
      "exit343": 4539,
      "server_type_id": 4540,
      "regex_iterator": 4541,
      "exit579": 4542,
      "trunc291": 4543,
      "send_du": 4544,
      "ERKNS_6ObjectE": 4545,
      "_ZN2Py4List6append": 4546,
      "TopoDS_T": 4547,
      "IN9__gnu_cxx17__normal_iteratorIPKcNSt7__cxx1112basic_stringIcSt11char_traitsIcESaIcEEEEEc": 4548,
      "3App": 4549,
      "NCollec": 4550,
      "IN5boost13re_detail_5007digraphIcEE": 4551,
      "branch": 4552,
      "get_player_by_number": 4553,
      "send_dump": 4554,
      "_ZN2Py4List6appendERKNS_6ObjectE": 4555,
      "NCollection_": 4556,
      "2c": 4557,
      "2cb": 4558,
      "2e87e": 4559,
      "332": 4560,
      "425": 4561,
      "420": 4562,
      "5Mo": 4563,
      "5_S": 4564,
      "6ff": 4565,
      "854": 4566,
      "950": 4567,
      "98b": 4568,
      "9db": 4569,
      "AF": 4570,
      "Cur": 4571,
      "Ip": 4572,
      "b9db": 4573,
      "fsub": 4574,
      "fdiv": 4575,
      "tk": 4576,
      "tsm": 4577,
      "uP": 4578,
      "ual": 4579,
      "vtk": 4580,
      "wAF": 4581,
      "wIp": 4582,
      "insert337": 4583,
      "insert212": 4584,
      "ext12": 4585,
      "319": 4586,
      "pre88": 4587,
      "trunc49": 4588,
      "trunc244": 4589,
      "trunc248": 4590,
      "shift10": 4591,
      "shift66": 4592,
      "shift50": 4593,
      "shift93": 4594,
      "func333": 4595,
      "func350": 4596,
      "func444": 4597,
      "exit94": 4598,
      "exit131": 4599,
      "exit177": 4600,
      "exit293": 4601,
      "exit246": 4602,
      "exit249": 4603,
      "i384": 4604,
      "803": 4605,
      "8698b": 4606,
      "1410": 4607,
      "590": 4608,
      "i427": 4609,
      "i424": 4610,
      "i440": 4611,
      "i455": 4612,
      "i443": 4613,
      "i473": 4614,
      "478": 4615,
      "i659": 4616,
      "i690": 4617,
      "var84": 4618,
      "i516": 4619,
      "i527": 4620,
      "i530": 4621,
      "i547": 4622,
      "9f06": 4623,
      "fail": 4624,
      "388": 4625,
      "_ZNS": 4626,
      "495": 4627,
      "585": 4628,
      "State": 4629,
      "_repeat": 4630,
      "promoted477": 4631,
      "6879f06": 4632,
      "parser": 4633,
      "C9wIp": 4634,
      "exit207": 4635,
      "exit697": 4636,
      "exit282": 4637,
      "exit264": 4638,
      "rows": 4639,
      "m_rows": 4640,
      "exit365": 4641,
      "_syste": 4642,
      "insert612": 4643,
      "exit334": 4644,
      "insert128259": 4645,
      "4326879f06": 4646,
      "hape": 4647,
      "5boost13match_resultsIN9__gnu_cxx17__normal_iteratorIPKcNSt7__cxx1112basic_stringIcSt11char_traitsIcESaIcEEEEESaINS_9sub_matchISB_EEEE": 4648,
      "2c8698b": 4649,
      "2cb6ff": 4650,
      "5Mouse": 4651,
      "b9db2c8698b": 4652,
      "tsm_syste": 4653,
      "wAFuP": 4654,
      "C9wIpwAFuP": 4655,
      "4326879f06b9db2c8698b": 4656,
      "2cb6ff4326879f06b9db2c8698b": 4657,
      "tsm_system_rows": 4658,
      "2cb6ff4326879f06b9db2c8698b2e87e": 4659,
      "01": 4660,
      "1st": 4661,
      "2ff": 4662,
      "341": 4663,
      "340": 4664,
      "421": 4665,
      "5w": 4666,
      "5e0": 4667,
      "542": 4668,
      "7d": 4669,
      "731": 4670,
      "7c0": 4671,
      "824": 4672,
      "8_EE": 4673,
      "Auth": 4674,
      "FCon": 4675,
      "Jq": 4676,
      "OFCon": 4677,
      "R3": 4678,
      "S1_": 4679,
      "_insert": 4680,
      "_name": 4681,
      "_char": 4682,
      "_T0_": 4683,
      "ae": 4684,
      "ap_": 4685,
      "b38": 4686,
      "c5e0": 4687,
      "dition": 4688,
      "f146": 4689,
      "l_": 4690,
      "lp": 4691,
      "nU": 4692,
      "p_s": 4693,
      "ript": 4694,
      "s10": 4695,
      "t10": 4696,
      "t36": 4697,
      "t69": 4698,
      "v194": 4699,
      "reen": 4700,
      "i643": 4701,
      "i324": 4702,
      "insert34": 4703,
      "ac7d": 4704,
      "asc_": 4705,
      "mask49": 4706,
      "ext30": 4707,
      "ext14": 4708,
      "locate": 4709,
      "var113": 4710,
      "var148": 4711,
      "var121": 4712,
      "var149": 4713,
      "trunc16": 4714,
      "trunc76": 4715,
      "trunc63": 4716,
      "shift13": 4717,
      "shift20": 4718,
      "shift88": 4719,
      "shift243": 4720,
      "func349": 4721,
      "10shared_ptr": 4722,
      "winarg": 4723,
      "1223": 4724,
      "15regex": 4725,
      "exit458": 4726,
      "exit344": 4727,
      "exit242": 4728,
      "exit100": 4729,
      "exit433": 4730,
      "exit127": 4731,
      "i395": 4732,
      "not21": 4733,
      "not34": 4734,
      "equal": 4735,
      "13_M": 4736,
      "swap_": 4737,
      "1711": 4738,
      "ndScopeEv": 4739,
      "1911": 4740,
      "unpack77": 4741,
      "unpack48": 4742,
      "unpack22": 4743,
      "unpack21": 4744,
      "unpack67": 4745,
      "unpack46": 4746,
      "unpack60": 4747,
      "unpack69": 4748,
      "unpack112": 4749,
      "unpack116": 4750,
      "i410": 4751,
      "i411": 4752,
      "i457": 4753,
      "i442": 4754,
      "i499": 4755,
      "i462": 4756,
      "i495": 4757,
      "291": 4758,
      "298": 4759,
      "elect1st": 4760,
      "353": 4761,
      "355": 4762,
      "i627": 4763,
      "i622": 4764,
      "i657": 4765,
      "i674": 4766,
      "i606": 4767,
      "378": 4768,
      "raw": 4769,
      "i510": 4770,
      "i515": 4771,
      "i580": 4772,
      "i539": 4773,
      "342": 4774,
      "382": 4775,
      "707": 4776,
      "794": 4777,
      "func365": 4778,
      "typeE": 4779,
      "765": 4780,
      "libnfc": 4781,
      "offset": 4782,
      "_Select1st": 4783,
      "f82ff": 4784,
      "var162": 4785,
      "sink5": 4786,
      "sink12": 4787,
      "SaIS": 4788,
      "i405": 4789,
      "efb38": 4790,
      "i318": 4791,
      "i398": 4792,
      "i3952": 4793,
      "a9a7": 4794,
      "i4510": 4795,
      "1159": 4796,
      "i553": 4797,
      "i4341": 4798,
      "i575": 4799,
      "i603": 4800,
      "v200": 4801,
      "v121": 4802,
      "_deallocate": 4803,
      "exit195": 4804,
      "exit174": 4805,
      "v196": 4806,
      "v198": 4807,
      "_ZNK12Falltergeist": 4808,
      "i3354": 4809,
      "exit261": 4810,
      "exit623": 4811,
      "exit284": 4812,
      "exit286": 4813,
      "6vectorIN5boost9sub_matchIN9__gnu_cxx17__normal_iteratorIPKcNSt7__cxx1112basic_stringIcSt11char_traitsIcESaIcEEEEEEESaISD_EEixEm": 4814,
      "exit271": 4815,
      "exit645": 4816,
      "_ZN11OFCon": 4817,
      "_ESt4less": 4818,
      "narrow16": 4819,
      "i3794": 4820,
      "script": 4821,
      "T0_T_S": 4822,
      "_Rb_tree_node": 4823,
      "veEL": 4824,
      "error": 4825,
      "_SB_SB_SB_SB_SB_SB_SB_SB": 4826,
      "E8EndScopeEv": 4827,
      "print_object": 4828,
      "_ZNKSt6vectorIN5boost9sub_matchIN9__gnu_cxx17__normal_iteratorIPKcNSt7__cxx1112basic_stringIcSt11char_traitsIcESaIcEEEEEEESaISD_EEixEm": 4829,
      "_Vector_impl_data": 4830,
      "ENS_15regex": 4831,
      "error_typeE": 4832,
      "6detail": 4833,
      "St10_Select1st": 4834,
      "xform": 4835,
      "lcssa21": 4836,
      "_constants10": 4837,
      "egin": 4838,
      "trunc2127": 4839,
      "trunc609": 4840,
      "basic_regex_parser": 4841,
      "insert1320": 4842,
      "_ZN5boost13re_detail_50018basic_regex_parser": 4843,
      "596efb38": 4844,
      "EEE8allocateERS": 4845,
      "5wJq": 4846,
      "7c0a9a7": 4847,
      "c5e0ac7d": 4848,
      "f146596efb38": 4849,
      "lpsrc": 4850,
      "13_M_deallocate": 4851,
      "_ZN11OFCondition": 4852,
      "veELR3": 4853,
      "ENS_15regex_constants10": 4854,
      "St10_Select1stIS": 4855,
      "5wJqveELR3": 4856,
      "7c0a9a7f82ff": 4857,
      "c5e0ac7d7c0a9a7f82ff": 4858,
      "f146596efb38c5e0ac7d7c0a9a7f82ff": 4859,
      "ENS_15regex_constants10error_typeE": 4860,
      "0516": 4861,
      "1c7": 4862,
      "1ae": 4863,
      "213": 4864,
      "417": 4865,
      "4fail": 4866,
      "534": 4867,
      "589": 4868,
      "5equal": 4869,
      "C_EEE": 4870,
      "EO": 4871,
      "ENS": 4872,
      "Ge": 4873,
      "IJ": 4874,
      "Id": 4875,
      "T_SB": 4876,
      "XFT": 4877,
      "_index": 4878,
      "bf": 4879,
      "bt_": 4880,
      "bT_SB": 4881,
      "bXFT": 4882,
      "ebt_": 4883,
      "f464": 4884,
      "hEE": 4885,
      "i558": 4886,
      "imal": 4887,
      "lit": 4888,
      "l_match": 4889,
      "lRK": 4890,
      "sion": 4891,
      "tle": 4892,
      "tach": 4893,
      "xnU": 4894,
      "zxnU": 4895,
      "tro": 4896,
      "erIN9__gnu_cxx17__normal_iteratorIPKcNSt7__cxx1112basic_stringIcSt11char_traitsIcESaIcEEEEESaINS_9sub_matchIS": 4897,
      "insert17": 4898,
      "insert86": 4899,
      "insert67": 4900,
      "ext3": 4901,
      "ext31": 4902,
      "ext276": 4903,
      "leng": 4904,
      "317": 4905,
      "pre19": 4906,
      "stp": 4907,
      "trunc8": 4908,
      "trunc67": 4909,
      "trunc51": 4910,
      "trunc65": 4911,
      "trunc207": 4912,
      "shift108": 4913,
      "func348": 4914,
      "func347": 4915,
      "func367": 4916,
      "func361": 4917,
      "func360": 4918,
      "a11ae": 4919,
      "nosyste": 4920,
      "12per": 4921,
      "exit63": 4922,
      "exit136": 4923,
      "exit510": 4924,
      "exit125": 4925,
      "i3409": 4926,
      "13C": 4927,
      "13new_": 4928,
      "11_M_": 4929,
      "800": 4930,
      "801": 4931,
      "14354": 4932,
      "recursion": 4933,
      "ables": 4934,
      "i448": 4935,
      "i447": 4936,
      "i490": 4937,
      "i479": 4938,
      "i484": 4939,
      "i468": 4940,
      "i482": 4941,
      "i494": 4942,
      "i4117": 4943,
      "2044": 4944,
      "29regex_iterator": 4945,
      "404": 4946,
      "407": 4947,
      "var71": 4948,
      "22bXFT": 4949,
      "361": 4950,
      "366": 4951,
      "i628": 4952,
      "i616": 4953,
      "i681": 4954,
      "i688": 4955,
      "i605": 4956,
      "i604": 4957,
      "575": 4958,
      "i519": 4959,
      "i544": 4960,
      "var101": 4961,
      "var105": 4962,
      "704": 4963,
      "func358": 4964,
      "999": 4965,
      "func394": 4966,
      "func396": 4967,
      "IcSa": 4968,
      "libebt_": 4969,
      "f8f464": 4970,
      "var161": 4971,
      "i4062": 4972,
      "_ZN9__gnu_cxx": 4973,
      "_string_": 4974,
      "i396": 4975,
      "i3629": 4976,
      "i3684": 4977,
      "i3744": 4978,
      "i3739": 4979,
      "i3519": 4980,
      "i3464": 4981,
      "861a11ae": 4982,
      "i4231": 4983,
      "i4227": 4984,
      "i3846": 4985,
      "0_2": 4986,
      "0000e": 4987,
      "_ZN12Falltergeist5": 4988,
      "i521": 4989,
      "exit140": 4990,
      "_ZNSt7__cxx1112basic_stringIcSt11char_traitsIcESaIcEE13": 4991,
      "exit190": 4992,
      "exit197": 4993,
      "NSt7__cxx1112basic_stringIcSt11char_traitsIcESaIcEEES": 4994,
      "exit173": 4995,
      "hashed_": 4996,
      "_ZNK5boost13match_resultsIN9__gnu_cxx17__normal_iteratorIPKcNSt7__cxx1112basic_stringIcSt11char_traitsIcESaIcEEEEESaINS_9sub_matchISB_EEEE": 4997,
      "exit281": 4998,
      "4660516": 4999,
      "exit219": 5000,
      "IN9__gnu_cxx17__normal_iteratorIPKcNSt7__cxx1112basic_stringIcSt11char_traitsIcESaIcEEEEES": 5001,
      "i4172": 5002,
      "_ZN5boost13re_detail_50012per": 5003,
      "i3574": 5004,
      "trunc1021": 5005,
      "Comp": 5006,
      "i3900": 5007,
      "exit475": 5008,
      "exit299": 5009,
      "multi_index": 5010,
      "_ZSt5equal": 5011,
      "i4282": 5012,
      "exit4564": 5013,
      "5EventC2ERKNSt7__cxx1112basic_stringIcSt11char_traitsIcESaIcEEE": 5014,
      "_implementationIN9__gnu_cxx17__normal_iteratorIPKcNSt7__cxx1112basic_stringIcSt11char_traitsIcESaIcEEEEEc": 5015,
      "INSt7__cxx1112basic_stringIcSt11char_traitsIcESaIcEEESaIS": 5016,
      "iptables": 5017,
      "pre194204": 5018,
      "i4007": 5019,
      "_from_lit": 5020,
      "IcNS_12regex_traitsIcNS_16cpp_regex_traitsIcEEEEE4fail": 5021,
      "minimal": 5022,
      "long_from_lit": 5023,
      "_ZN12Falltergeist5Event5EventC2ERKNSt7__cxx1112basic_stringIcSt11char_traitsIcESaIcEEE": 5024,
      "3_EbT_SB": 5025,
      "ext126258": 5026,
      "NCollection_Base": 5027,
      "swap_long_from_lit": 5028,
      "_ZN5boost13re_detail_50018basic_regex_parserIcNS_12regex_traitsIcNS_16cpp_regex_traitsIcEEEEE4fail": 5029,
      "ENS_15regex_constants10error_typeElRK": 5030,
      "1c7ea": 5031,
      "Geo": 5032,
      "bf2044": 5033,
      "l_matcherIN9__gnu_cxx17__normal_iteratorIPKcNSt7__cxx1112basic_stringIcSt11char_traitsIcESaIcEEEEESaINS_9sub_matchIS": 5034,
      "length": 5035,
      "pre194199": 5036,
      "nosystemd": 5037,
      "13new_allocator": 5038,
      "11_M_allocateEm": 5039,
      "29regex_iterator_implementationIN9__gnu_cxx17__normal_iteratorIPKcNSt7__cxx1112basic_stringIcSt11char_traitsIcESaIcEEEEEc": 5040,
      "22bXFTzxnU": 5041,
      "libebt_stp": 5042,
      "f8f464bf2044": 5043,
      "_ZN9__gnu_cxx13new_allocator": 5044,
      "861a11ae1c7ea": 5045,
      "4660516f8f464bf2044": 5046,
      "IN9__gnu_cxx17__normal_iteratorIPKcNSt7__cxx1112basic_stringIcSt11char_traitsIcESaIcEEEEES3_EbT_SB": 5047,
      "_ZN5boost13re_detail_50012perl_matcherIN9__gnu_cxx17__normal_iteratorIPKcNSt7__cxx1112basic_stringIcSt11char_traitsIcESaIcEEEEESaINS_9sub_matchIS": 5048,
      "_ZSt5equalIN9__gnu_cxx17__normal_iteratorIPKcNSt7__cxx1112basic_stringIcSt11char_traitsIcESaIcEEEEES3_EbT_SB": 5049,
      "swap_long_from_little": 5050,
      "_ZN5boost13re_detail_50018basic_regex_parserIcNS_12regex_traitsIcNS_16cpp_regex_traitsIcEEEEE4failENS_15regex_constants10error_typeElRK": 5051,
      "4660516f8f464bf2044861a11ae1c7ea": 5052,
      "_ZN5boost13re_detail_50012perl_matcherIN9__gnu_cxx17__normal_iteratorIPKcNSt7__cxx1112basic_stringIcSt11char_traitsIcESaIcEEEEESaINS_9sub_matchISC_EEE": 5053,
      "_ZSt5equalIN9__gnu_cxx17__normal_iteratorIPKcNSt7__cxx1112basic_stringIcSt11char_traitsIcESaIcEEEEES3_EbT_SB_T0_": 5054,
      "_ZN5boost13re_detail_50018basic_regex_parserIcNS_12regex_traitsIcNS_16cpp_regex_traitsIcEEEEE4failENS_15regex_constants10error_typeElRKNSt7__cxx1112basic_stringIcSt11char_traitsIcESaIcEEE": 5055,
      "\"\"": 5056,
      "024": 5057,
      "033": 5058,
      "0126": 5059,
      "352": 5060,
      "4D": 5061,
      "4name": 5062,
      "7F": 5063,
      "7_": 5064,
      "838": 5065,
      "8allocateERS": 5066,
      "914": 5067,
      "925": 5068,
      "955": 5069,
      "@.": 5070,
      "A3": 5071,
      "A4D": 5072,
      "BRe": 5073,
      "B5F": 5074,
      "CD": 5075,
      "C71": 5076,
      "F17": 5077,
      "L_ZNS": 5078,
      "Page": 5079,
      "S2": 5080,
      "Shape": 5081,
      "Ty": 5082,
      "T_E": 5083,
      "Xad": 5084,
      "_initi": 5085,
      "_read_": 5086,
      "_jewel": 5087,
      "an": 5088,
      "bo": 5089,
      "bPN": 5090,
      "cop": 5091,
      "eEv": 5092,
      "hread": 5093,
      "hlt": 5094,
      "hSaI": 5095,
      "part": 5096,
      "ts": 5097,
      "t15": 5098,
      "t11": 5099,
      "t20": 5100,
      "322": 5101,
      "323": 5102,
      "ex_s": 5103,
      "insert28": 5104,
      "insert56": 5105,
      "insert201": 5106,
      "cator": 5107,
      "ext64": 5108,
      "ext16": 5109,
      "ext20": 5110,
      "ext35": 5111,
      "ext56": 5112,
      "le8": 5113,
      "pre5": 5114,
      "pre79": 5115,
      "var191": 5116,
      "trunc64": 5117,
      "trunc11": 5118,
      "trunc23": 5119,
      "trunc242": 5120,
      "shift5": 5121,
      "shift23": 5122,
      "func364": 5123,
      "func359": 5124,
      "func366": 5125,
      "1028": 5126,
      "1017": 5127,
      "1075": 5128,
      "func448": 5129,
      "utex_s": 5130,
      "exit95": 5131,
      "exit477": 5132,
      "i381": 5133,
      "i399": 5134,
      "i397": 5135,
      "not31": 5136,
      "eque": 5137,
      "13_Rb_tree_node": 5138,
      "11multi_index": 5139,
      "802": 5140,
      "phi271": 5141,
      "pthread": 5142,
      "418": 5143,
      "2587": 5144,
      "25NCollection_Base": 5145,
      ">))": 5146,
      "1909": 5147,
      "PKv": 5148,
      "unpack16": 5149,
      "unpack12": 5150,
      "unpack50": 5151,
      "unpack49": 5152,
      "unpack56": 5153,
      "unpack97": 5154,
      "unpack101": 5155,
      "i478": 5156,
      "i485": 5157,
      "i463": 5158,
      "i465": 5159,
      "451": 5160,
      "391": 5161,
      "399": 5162,
      "39137": 5163,
      "475": 5164,
      "select16": 5165,
      "select86": 5166,
      "35128": 5167,
      "360": 5168,
      "365": 5169,
      "i610": 5170,
      "i625": 5171,
      "i619": 5172,
      "i638": 5173,
      "i668": 5174,
      "661": 5175,
      "i532": 5176,
      "i514": 5177,
      "i536": 5178,
      "i566": 5179,
      "i534": 5180,
      "i538": 5181,
      "i581": 5182,
      "i583": 5183,
      "i705": 5184,
      "384": 5185,
      "cond16": 5186,
      "cond17": 5187,
      "884": 5188,
      "__pthread": 5189,
      "_ZN19": 5190,
      "543": 5191,
      "off32": 5192,
      "ph320": 5193,
      "ph318": 5194,
      "_ZNSt10shared_ptr": 5195,
      "var160": 5196,
      "lcssa10": 5197,
      "lcssa4124": 5198,
      "_relocate": 5199,
      "i403": 5200,
      "i404": 5201,
      "unpack212": 5202,
      "unpack2710": 5203,
      "unpack2779": 5204,
      "unpack2706": 5205,
      "unpack3010": 5206,
      "unpack3079": 5207,
      "unpack3083": 5208,
      "unpack3006": 5209,
      "i3958": 5210,
      "i3954": 5211,
      "Location": 5212,
      "unpack2852": 5213,
      "unpack2856": 5214,
      "unpack3225": 5215,
      "unpack3229": 5216,
      "unpack2929": 5217,
      "unpack3152": 5218,
      "unpack3156": 5219,
      "i594": 5220,
      "unpack517": 5221,
      "0_10": 5222,
      "i607": 5223,
      "unpack740": 5224,
      "unpack736": 5225,
      "ator_jewel": 5226,
      "_ZN12Falltergeist8Graphics": 5227,
      "exit142": 5228,
      "exit162": 5229,
      "_ZNSt7__cxx1112basic_stringIcSt11char_traitsIcESaIcEEaS": 5230,
      "%\"$": 5231,
      "C2EP": 5232,
      "exit185": 5233,
      "exit189": 5234,
      "exit139": 5235,
      "Input": 5236,
      "Instruc": 5237,
      "5boost13re_detail_50014re_syntax_base": 5238,
      "unpack189": 5239,
      "exit200": 5240,
      "6F7F": 5241,
      "_RSaI": 5242,
      "ERKS4_": 5243,
      "trunc534": 5244,
      "exit313": 5245,
      "SaIi": 5246,
      "SaIl": 5247,
      "_ZN11opencascade6handleI25NCollection_Base": 5248,
      "pre224": 5249,
      "_mutex_s": 5250,
      "898C71": 5251,
      "Screen": 5252,
      "_ZN5QListIP": 5253,
      "nfc_initi": 5254,
      "St4pairIbPN": 5255,
      "5972587": 5256,
      "exit562": 5257,
      "new_line": 5258,
      "allocateEmPKv": 5259,
      "5FB5F": 5260,
      "packet_count": 5261,
      "Allocator": 5262,
      "PointerI": 5263,
      "_ZN11opencascade6handleI13TopoDS_T": 5264,
      "A8A4D": 5265,
      "get_param_value": 5266,
      "asc_5FB5F": 5267,
      "unpack2259": 5268,
      "\"\"()": 5269,
      "955F17": 5270,
      "CDA3": 5271,
      "Type": 5272,
      "XadL_ZNS": 5273,
      "__pthread_mutex_s": 5274,
      "ator_jewel_cmd": 5275,
      "Input5Mouse": 5276,
      "Instruction": 5277,
      "6F7F898C71": 5278,
      "_ZN11opencascade6handleI25NCollection_BaseAllocator": 5279,
      "nfc_initiator_jewel_cmd": 5280,
      "St4pairIbPN5boost13re_detail_50014re_syntax_base": 5281,
      "59725876F7F898C71": 5282,
      "_ZN11opencascade6handleI13TopoDS_TShape": 5283,
      "A8A4DCDA3": 5284,
      "955F1759725876F7F898C71": 5285,
      "955F1759725876F7F898C71A8A4DCDA3": 5286,
      "3set": 5287,
      "3_St": 5288,
      "4119": 5289,
      "5cxx11": 5290,
      "6O": 5291,
      "6o": 5292,
      "6ex": 5293,
      "830": 5294,
      "9T": 5295,
      "984": 5296,
      "Able": 5297,
      "BC": 5298,
      "B5cxx11": 5299,
      "Des": 5300,
      "Ej": 5301,
      "EC2ERKS": 5302,
      "FBC": 5303,
      "IK": 5304,
      "Ii": 5305,
      "Im": 5306,
      "LNS": 5307,
      "Li0": 5308,
      "Man": 5309,
      "O61": 5310,
      "Sta": 5311,
      "Top": 5312,
      "XH": 5313,
      "Xp": 5314,
      "_value": 5315,
      "_ch": 5316,
      "_Allo": 5317,
      "_new_line": 5318,
      "cd3": 5319,
      "close": 5320,
      "dth": 5321,
      "euc": 5322,
      "iSaIi": 5323,
      "jis": 5324,
      "omp": 5325,
      "pOT": 5326,
      "pXp": 5327,
      "ray": 5328,
      "sor": 5329,
      "s_E": 5330,
      "t16": 5331,
      "v22": 5332,
      "v89": 5333,
      "v236": 5334,
      "v457": 5335,
      "v124": 5336,
      "v149": 5337,
      "v492": 5338,
      "v369": 5339,
      "v363": 5340,
      "v387": 5341,
      "v381": 5342,
      "yIP": 5343,
      "funcs_E": 5344,
      "erpre": 5345,
      "er11getInstanceEv": 5346,
      "insert30": 5347,
      "insert33": 5348,
      "insert69": 5349,
      "insert98": 5350,
      "28149": 5351,
      "ab687": 5352,
      "ext25": 5353,
      "ext29": 5354,
      "ext132": 5355,
      "ed9c": 5356,
      "urXH": 5357,
      "var116": 5358,
      "var120": 5359,
      "var176": 5360,
      "trunc24": 5361,
      "trunc255": 5362,
      "trunc225": 5363,
      "trunc119": 5364,
      "func486": 5365,
      "func423": 5366,
      "a12": 5367,
      "ict": 5368,
      "clust": 5369,
      "free_": 5370,
      "width": 5371,
      "15Re": 5372,
      "exit61": 5373,
      "exit107": 5374,
      "exit386": 5375,
      "exit241": 5376,
      "i394": 5377,
      "cecd3": 5378,
      "13match_results": 5379,
      "13Smb4K": 5380,
      "2695": 5381,
      "26basic_regex": 5382,
      "sourceMan": 5383,
      "ndard_": 5384,
      "i425": 5385,
      "i470": 5386,
      "i487": 5387,
      "i491": 5388,
      "pect": 5389,
      "455": 5390,
      "select88": 5391,
      "select219": 5392,
      "556": 5393,
      "55B": 5394,
      "362": 5395,
      "i613": 5396,
      "i618": 5397,
      "i629": 5398,
      "i635": 5399,
      "i666": 5400,
      "i662": 5401,
      "thread80": 5402,
      "i512": 5403,
      "i559": 5404,
      "9fc4": 5405,
      "90ab687": 5406,
      "3423": 5407,
      "706": 5408,
      "EE9": 5409,
      "793": 5410,
      "func356": 5411,
      "606": 5412,
      "v486": 5413,
      "i2433": 5414,
      "off328": 5415,
      "off073": 5416,
      "off0830": 5417,
      "v214": 5418,
      "v510": 5419,
      "sroa_idx4": 5420,
      "_sjis": 5421,
      "v96": 5422,
      "LockAble": 5423,
      "_pos": 5424,
      "LN9__gnu_cxx12_Lock_policyE2EED2Ev": 5425,
      "i591": 5426,
      "i508": 5427,
      "i608": 5428,
      "v162": 5429,
      "v163": 5430,
      "v167": 5431,
      "i4390": 5432,
      "_ZN12Falltergeist15Re": 5433,
      "IS3_": 5434,
      "exit149": 5435,
      "v126": 5436,
      "Info": 5437,
      "806cecd3": 5438,
      "EPc": 5439,
      "_M_set_": 5440,
      "fptosi": 5441,
      "i4350": 5442,
      "i4354": 5443,
      "i4356": 5444,
      "sign": 5445,
      "size": 5446,
      "v407": 5447,
      "exit397": 5448,
      "exit428": 5449,
      "exit411": 5450,
      "v249": 5451,
      "v300": 5452,
      "paque": 5453,
      "exit442": 5454,
      "v504": 5455,
      "v473": 5456,
      "v313": 5457,
      "v319": 5458,
      "IN5boost29regex_iterator_implementationIN9__gnu_cxx17__normal_iteratorIPKcNSt7__cxx1112basic_stringIcSt11char_traitsIcESaIcEEEEEc": 5459,
      "ixEi": 5460,
      "os_string_": 5461,
      "trunc205": 5462,
      "St4pairIKS": 5463,
      "entry": 5464,
      "aSERKS": 5465,
      "_implementationIc": 5466,
      "_implementationIcEE": 5467,
      "2_12_Lock_policyE2": 5468,
      "_ZN5QListI7QString": 5469,
      "2004_sjis": 5470,
      "ager11getInstanceEv": 5471,
      "cpp_regex_traits_implementationIcEE": 5472,
      "_ZN5TLockC2EP": 5473,
      "bb_load": 5474,
      "NS0_12regex_traitsIcNS0_16cpp_regex_traitsIcEEEEEELNS": 5475,
      "_ZN12Falltergeist6Format3Txt5Lexer6ex": 5476,
      "insert61211": 5477,
      "AuthInfo": 5478,
      "winarg0": 5479,
      "5896": 5480,
      "EOS4_": 5481,
      "IcSaIcEE": 5482,
      "_ZNSt7__cxx1112basic_stringIcSt11char_traitsIcESaIcEE13_M_set_": 5483,
      "_ZNK5boost13match_resultsIN9__gnu_cxx17__normal_iteratorIPKcNSt7__cxx1112basic_stringIcSt11char_traitsIcESaIcEEEEESaINS_9sub_matchISB_EEEEixEi": 5484,
      "lengthEm": 5485,
      "_ZN5boost13re_detail_50012perl_matcherIN9__gnu_cxx17__normal_iteratorIPKcNSt7__cxx1112basic_stringIcSt11char_traitsIcESaIcEEEEESaINS_9sub_matchISC_EEENS_12regex_traitsIcNS_16cpp_regex_traitsIcEEEEE": 5486,
      "hSaIhEE": 5487,
      "11multi_index6detail": 5488,
      "_ZNSt7__cxx1112basic_stringIcSt11char_traitsIcESaIcEEaSEOS4_": 5489,
      "_ZN5QListIP13Smb4K": 5490,
      "6opaque": 5491,
      "9TLockAble": 5492,
      "Destro": 5493,
      "O61pXp": 5494,
      "Standard_": 5495,
      "_Alloc_": 5496,
      "euc2004_sjis": 5497,
      "pOT_": 5498,
      "funcs_E55B": 5499,
      "erpreter": 5500,
      "ed9c9fc4": 5501,
      "269528149": 5502,
      "26basic_regex_implementationIc": 5503,
      "sourceManager11getInstanceEv": 5504,
      "pectEi": 5505,
      "90ab687269528149": 5506,
      "off32831": 5507,
      "_ZN12Falltergeist15ResourceManager11getInstanceEv": 5508,
      "806cecd3ed9c9fc4": 5509,
      "IN5boost29regex_iterator_implementationIN9__gnu_cxx17__normal_iteratorIPKcNSt7__cxx1112basic_stringIcSt11char_traitsIcESaIcEEEEEcNS0_12regex_traitsIcNS0_16cpp_regex_traitsIcEEEEEELNS": 5510,
      "os_string_width": 5511,
      "_ZN5TLockC2EP9TLockAble": 5512,
      "_ZN12Falltergeist6Format3Txt5Lexer6expectEi": 5513,
      "_ZNSt7__cxx1112basic_stringIcSt11char_traitsIcESaIcEE13_M_set_lengthEm": 5514,
      "_ZN5QListIP13Smb4KAuthInfo": 5515,
      "O61pXpurXH": 5516,
      "euc2004_sjis2004": 5517,
      "806cecd3ed9c9fc490ab687269528149": 5518,
      "IN5boost29regex_iterator_implementationIN9__gnu_cxx17__normal_iteratorIPKcNSt7__cxx1112basic_stringIcSt11char_traitsIcESaIcEEEEEcNS0_12regex_traitsIcNS0_16cpp_regex_traitsIcEEEEEELNS2_12_Lock_policyE2": 5519,
      "027": 5520,
      "026": 5521,
      "022": 5522,
      "060": 5523,
      "072": 5524,
      "1128": 5525,
      "220": 5526,
      "3_S": 5527,
      "4N": 5528,
      "437": 5529,
      "490": 5530,
      "4102": 5531,
      "4203": 5532,
      "530": 5533,
      "524": 5534,
      "529": 5535,
      "5667": 5536,
      "5_E": 5537,
      "5666": 5538,
      "5Point": 5539,
      "5Input5Mouse": 5540,
      "611": 5541,
      "7N": 5542,
      "721": 5543,
      "819": 5544,
      "9_": 5545,
      "928": 5546,
      "923": 5547,
      "944": 5548,
      "988": 5549,
      "Ad": 5550,
      "Bas": 5551,
      "Begin": 5552,
      "Cu": 5553,
      "Char": 5554,
      "D_": 5555,
      "E10": 5556,
      "EPKc": 5557,
      "If": 5558,
      "Int": 5559,
      "Option": 5560,
      "Pa": 5561,
      "Spec": 5562,
      "_address": 5563,
      "_info": 5564,
      "ev": 5565,
      "ew": 5566,
      "lse": 5567,
      "lSaIl": 5568,
      "mOption": 5569,
      "nw": 5570,
      "object": 5571,
      "pat": 5572,
      "push": 5573,
      "pict": 5574,
      "pAd": 5575,
      "rs": 5576,
      "rand": 5577,
      "tes": 5578,
      "ytes": 5579,
      "325": 5580,
      "32Ev": 5581,
      "in2": 5582,
      "in4": 5583,
      "in32": 5584,
      "in13": 5585,
      "relse": 5586,
      "i641": 5587,
      "i647": 5588,
      "insert12": 5589,
      "insert37": 5590,
      "insert228": 5591,
      "insert260": 5592,
      "assign": 5593,
      "ext6": 5594,
      "ext28": 5595,
      "ext77": 5596,
      "ext18": 5597,
      "ext79": 5598,
      "ext42": 5599,
      "ext54": 5600,
      "ext83": 5601,
      "ext72": 5602,
      "ext252": 5603,
      "ext258": 5604,
      "ext185": 5605,
      "ursor": 5606,
      "le6": 5607,
      "pre389": 5608,
      "var128": 5609,
      "var117": 5610,
      "var134": 5611,
      "var142": 5612,
      "var171": 5613,
      "lock": 5614,
      "trunc31": 5615,
      "trunc25": 5616,
      "trunc1019": 5617,
      "trunc289": 5618,
      "shift19": 5619,
      "shift18": 5620,
      "shift29": 5621,
      "shift81": 5622,
      "shift97": 5623,
      "shift111": 5624,
      "shift310": 5625,
      "1023": 5626,
      "1055": 5627,
      "1089": 5628,
      "1046": 5629,
      "func464": 5630,
      "func416": 5631,
      "func431": 5632,
      "func427": 5633,
      "func410": 5634,
      "func412": 5635,
      "func424": 5636,
      "func414": 5637,
      "func425": 5638,
      "func420": 5639,
      "func440": 5640,
      "func434": 5641,
      "func450": 5642,
      "func467": 5643,
      "func461": 5644,
      "func442": 5645,
      "stomOption": 5646,
      "1237": 5647,
      "1205": 5648,
      "12Property": 5649,
      "1578": 5650,
      "exit85": 5651,
      "exit528": 5652,
      "exit515": 5653,
      "exit511": 5654,
      "exit408": 5655,
      "exit545": 5656,
      "not28": 5657,
      "not30": 5658,
      "not17": 5659,
      "not29": 5660,
      "not52": 5661,
      "not36": 5662,
      "not46": 5663,
      "1118": 5664,
      "1171": 5665,
      "1176": 5666,
      "1759": 5667,
      "1782": 5668,
      "863": 5669,
      "868": 5670,
      "14recursion": 5671,
      "268": 5672,
      "\".@": 5673,
      "ure_data": 5674,
      "5931": 5675,
      "5910": 5676,
      "5930": 5677,
      "4186": 5678,
      "back_insert": 5679,
      "774": 5680,
      "1910": 5681,
      "1912": 5682,
      "1920": 5683,
      "1921": 5684,
      "19basic_regex": 5685,
      "PKS1_": 5686,
      "unpack57": 5687,
      "unpack78": 5688,
      "unpack109": 5689,
      "unpack521": 5690,
      "1857": 5691,
      "i432": 5692,
      "i488": 5693,
      "i476": 5694,
      "i469": 5695,
      "i475": 5696,
      "i492": 5697,
      "20back_insert": 5698,
      "472": 5699,
      "2213": 5700,
      "i689": 5701,
      "i660": 5702,
      "i683": 5703,
      "371": 5704,
      "21cpp_regex_traits": 5705,
      "574": 5706,
      "662": 5707,
      "i526": 5708,
      "i523": 5709,
      "i545": 5710,
      "i588": 5711,
      "i561": 5712,
      "i582": 5713,
      "i729": 5714,
      "i748": 5715,
      "_Znw": 5716,
      "cond7": 5717,
      "cond10": 5718,
      "cond51": 5719,
      "cond100": 5720,
      "493": 5721,
      "func346": 5722,
      "check": 5723,
      "EvT_S": 5724,
      "func383": 5725,
      "func385": 5726,
      "998": 5727,
      "IcEC2E": 5728,
      "func404": 5729,
      "func406": 5730,
      "func408": 5731,
      "974": 5732,
      "func463": 5733,
      "func465": 5734,
      "func468": 5735,
      "695": 5736,
      "off9": 5737,
      "_cursor": 5738,
      "var175": 5739,
      "000e": 5740,
      "sroa_idx16": 5741,
      "unpack2122": 5742,
      "unpack2126": 5743,
      "unpack2783": 5744,
      "unpack2925": 5745,
      "5646": 5746,
      "i598": 5747,
      "i576": 5748,
      "move": 5749,
      "0_7": 5750,
      "ERj": 5751,
      "_EENS": 5752,
      "unpack444": 5753,
      "unpack448": 5754,
      "unpack663": 5755,
      "unpack667": 5756,
      "exit152": 5757,
      "IPKcEEvT_S": 5758,
      "_brelse": 5759,
      "1133": 5760,
      "unpack371": 5761,
      "unpack375": 5762,
      "trunc214": 5763,
      "i44534": 5764,
      "unpack185": 5765,
      "shift224": 5766,
      "exit206": 5767,
      "unpack590": 5768,
      "unpack594": 5769,
      "unpack2263": 5770,
      "exit4171": 5771,
      "Data": 5772,
      "Data12": 5773,
      "exit3738": 5774,
      "_ZN5boost13re_detail_50019basic_regex": 5775,
      "exit465": 5776,
      "exit382": 5777,
      "_ZN12Falltergeist6Format3Dat6Streamrs": 5778,
      "exit3628": 5779,
      "exit494": 5780,
      "irI7QString": 5781,
      "_creator": 5782,
      "exit596": 5783,
      "exit693": 5784,
      "St4pairIK": 5785,
      "aptor": 5786,
      "_ZNSt7__cxx1112basic_stringIcSt11char_traitsIcESaIcEE12_M_constructIPKcEEvT_S": 5787,
      "_ZN2Py6Object3set": 5788,
      "_strcpy": 5789,
      "exit569": 5790,
      "ERKNS_8Graphics": 5791,
      "_ZN12Falltergeist6Format3Dat6Stream6uint32Ev": 5792,
      "Smb4KConfig": 5793,
      "os_pict": 5794,
      "_ZN11opencascade6handleI13Standard_": 5795,
      "PropertySpec": 5796,
      "default_name": 5797,
      "_ZN5TLockD2Ev": 5798,
      "EC2EPKS1_": 5799,
      "IN5boost13re_detail_50020named_subexpressions4name": 5800,
      "3App12Property": 5801,
      "IN5boost13re_detail_5007digraphIcEEEE": 5802,
      "raw_brelse": 5803,
      "script_new_line": 5804,
      "xform_strcpy": 5805,
      "13_M_deallocateEPS": 5806,
      "_ZN12Falltergeist5State": 5807,
      "INSt7__cxx1112basic_stringIcSt11char_traitsIcESaIcEEESaIS5_EE": 5808,
      "BRepAd": 5809,
      "ts3": 5810,
      "lcssa412417": 5811,
      "_ZN12Falltergeist8Graphics6S": 5812,
      "XadL_ZNS6_": 5813,
      "TopLo": 5814,
      "yIPNSt7__cxx1112basic_stringIcSt11char_traitsIcESaIcEEES": 5815,
      "cluster": 5816,
      "_ZN5QListI7QStringED2Ev": 5817,
      "5PointE": 5818,
      "BeginScopeEv": 5819,
      "CustomOption": 5820,
      "E10BeginScopeEv": 5821,
      "PairI7QString": 5822,
      "object_address": 5823,
      "rando": 5824,
      "assignERKS4_": 5825,
      "14recursion_info": 5826,
      "20back_insert_iterator": 5827,
      "21cpp_regex_traits_base": 5828,
      "_Znwm": 5829,
      "Data12PropertySpec": 5830,
      "_ZN5boost13re_detail_50019basic_regex_creator": 5831,
      "_ZN12Falltergeist6Format3Dat6StreamrsERj": 5832,
      "_ZN2Py6Object3setEP7_objectb": 5833,
      "ERKNS_8Graphics5PointE": 5834,
      "os_picture_data": 5835,
      "_ZN11opencascade6handleI13Standard_Type": 5836,
      "3App12PropertyData12PropertySpec": 5837,
      "BRepAdaptor": 5838,
      "CustomOptions": 5839,
      "0E": 5840,
      "039": 5841,
      "1_EE": 5842,
      "2E": 5843,
      "412": 5844,
      "441": 5845,
      "587": 5846,
      "6C": 5847,
      "684": 5848,
      "6_EE": 5849,
      "6_m": 5850,
      "727": 5851,
      "712": 5852,
      "749": 5853,
      "9C": 5854,
      "A18": 5855,
      "A44": 5856,
      "BB": 5857,
      "B2E": 5858,
      "BA44": 5859,
      "C2Ev": 5860,
      "CA8": 5861,
      "EPK": 5862,
      "EN9__gnu_cxx": 5863,
      "F_": 5864,
      "N5boost13re_detail_50": 5865,
      "Text": 5866,
      "Val": 5867,
      "_a": 5868,
      "_ptr": 5869,
      "_ms": 5870,
      "aux": 5871,
      "eP": 5872,
      "ees": 5873,
      "gpack": 5874,
      "hnull": 5875,
      "i573": 5876,
      "list": 5877,
      "pexce": 5878,
      "sT": 5879,
      "seque": 5880,
      "t6": 5881,
      "t18": 5882,
      "vEE": 5883,
      "wra": 5884,
      "wpa": 5885,
      "tr14": 5886,
      "alGeo": 5887,
      "input": 5888,
      "replay": 5889,
      "i640": 5890,
      "insert38": 5891,
      "insert130": 5892,
      "insert430": 5893,
      "insert127": 5894,
      "insert141": 5895,
      "insert254": 5896,
      "insert335": 5897,
      "insert283": 5898,
      "insert358": 5899,
      "insert793": 5900,
      "ED9C": 5901,
      "metry": 5902,
      "i880": 5903,
      "i867": 5904,
      "ext139": 5905,
      "ext392": 5906,
      "acter": 5907,
      "callees": 5908,
      "mpl": 5909,
      "getItem": 5910,
      "pre9": 5911,
      "pre14": 5912,
      "pre18": 5913,
      "pre143": 5914,
      "pre173": 5915,
      "var130": 5916,
      "var119": 5917,
      "var174": 5918,
      "ithnull": 5919,
      "onComp": 5920,
      "trunc30": 5921,
      "trunc13": 5922,
      "trunc14": 5923,
      "trunc77": 5924,
      "trunc35": 5925,
      "trunc89": 5926,
      "trunc53": 5927,
      "trunc73": 5928,
      "trunc75": 5929,
      "trunc247": 5930,
      "trunc295": 5931,
      "trunc261": 5932,
      "trunc285": 5933,
      "shift60": 5934,
      "shift73": 5935,
      "shift259": 5936,
      "shift113": 5937,
      "func377": 5938,
      "func381": 5939,
      "func389": 5940,
      "func399": 5941,
      "1002": 5942,
      "10wra": 5943,
      "func437": 5944,
      "func470": 5945,
      "func456": 5946,
      "ice": 5947,
      "utation": 5948,
      "1243": 5949,
      "exit24": 5950,
      "exit416": 5951,
      "exit98": 5952,
      "exit233": 5953,
      "exit217": 5954,
      "exit194": 5955,
      "exit849": 5956,
      "exit255": 5957,
      "exit238": 5958,
      "exit513": 5959,
      "exit409": 5960,
      "exit906": 5961,
      "exit225": 5962,
      "exit258": 5963,
      "exit519": 5964,
      "exit576": 5965,
      "exit532": 5966,
      "exit871": 5967,
      "exit447": 5968,
      "exit526": 5969,
      "exit121": 5970,
      "exit862": 5971,
      "exit897": 5972,
      "exit954": 5973,
      "exit840": 5974,
      "exit119": 5975,
      "exit466": 5976,
      "exit739": 5977,
      "exit346": 5978,
      "exit400": 5979,
      "exit554": 5980,
      "not197": 5981,
      "866": 5982,
      "display": 5983,
      "777": 5984,
      "unpack_ms": 5985,
      "18184": 5986,
      "031cpp_regex_traits_implementationIcEE": 5987,
      "i431": 5988,
      "i434": 5989,
      "i449": 5990,
      "i498": 5991,
      "i4239": 5992,
      "442": 5993,
      "452": 5994,
      "hider": 5995,
      "unregister_": 5996,
      "select12": 5997,
      "i626": 5998,
      "i655": 5999,
      "i651": 6000,
      "i663": 6001,
      "i694": 6002,
      "37B2E": 6003,
      "thon": 6004,
      "5734": 6005,
      "660": 6006,
      "i564": 6007,
      "i528": 6008,
      "i540": 6009,
      "i567": 6010,
      "i549": 6011,
      "i543": 6012,
      "i585": 6013,
      "i716": 6014,
      "i727": 6015,
      "i720": 6016,
      "i789": 6017,
      "_ZSt4": 6018,
      "mmonComp": 6019,
      "708": 6020,
      "EE7": 6021,
      "i915": 6022,
      "func351": 6023,
      "601": 6024,
      "_ZN17": 6025,
      "_ZN5boost13re_detail_5007digraph": 6026,
      "func373": 6027,
      "func369": 6028,
      "56CA8": 6029,
      "func392": 6030,
      "func395": 6031,
      "func402": 6032,
      "func405": 6033,
      "_co": 6034,
      "phi108": 6035,
      "var168": 6036,
      "_resource": 6037,
      "i406": 6038,
      "91ED9C": 6039,
      "i3956": 6040,
      "i3411": 6041,
      "i4184": 6042,
      "i557": 6043,
      "i3857": 6044,
      "i595": 6045,
      "i597": 6046,
      "i579": 6047,
      "i770": 6048,
      "0_m": 6049,
      "promoted3423": 6050,
      "strcmp": 6051,
      "exit141": 6052,
      "exit1411": 6053,
      "exit1455": 6054,
      "exit1446": 6055,
      "exit1468": 6056,
      "exit1402": 6057,
      "exit169": 6058,
      "exit1617": 6059,
      "exit1626": 6060,
      "exit1652": 6061,
      "exit1639": 6062,
      "exit1661": 6063,
      "exit1674": 6064,
      "exit1604": 6065,
      "94743": 6066,
      "_ZNSt7__cxx1112basic_stringIcSt11char_traitsIcESaIcEE7_S": 6067,
      "exit1964": 6068,
      "exit1911": 6069,
      "exit1986": 6070,
      "exit1977": 6071,
      "exit1920": 6072,
      "exit1955": 6073,
      "trunc626": 6074,
      "exit176": 6075,
      "exit1718": 6076,
      "exit1753": 6077,
      "exit1784": 6078,
      "exit1762": 6079,
      "exit1775": 6080,
      "exit1709": 6081,
      "exit1525": 6082,
      "exit1547": 6083,
      "exit1534": 6084,
      "exit1556": 6085,
      "exit1569": 6086,
      "exit1582": 6087,
      "exit1591": 6088,
      "exit1841": 6089,
      "exit1850": 6090,
      "exit1876": 6091,
      "exit1885": 6092,
      "exit1898": 6093,
      "exit134": 6094,
      "exit138": 6095,
      "exit1380": 6096,
      "exit1345": 6097,
      "exit1336": 6098,
      "exit1367": 6099,
      "exit1389": 6100,
      "exit1358": 6101,
      "i1642": 6102,
      "initializ": 6103,
      "exit632": 6104,
      "exit664": 6105,
      "exit610": 6106,
      "exit680": 6107,
      "exit686": 6108,
      "exit620": 6109,
      "exit629": 6110,
      "_oper": 6111,
      "exit216": 6112,
      "exit213": 6113,
      "Python": 6114,
      "exit1011": 6115,
      "exit1077": 6116,
      "exit1020": 6117,
      "exit1033": 6118,
      "exit1090": 6119,
      "exit1099": 6120,
      "exit1068": 6121,
      "exit273": 6122,
      "_RS": 6123,
      "exit431": 6124,
      "exit425": 6125,
      "exit422": 6126,
      "exit438": 6127,
      "i4176": 6128,
      "exit302": 6129,
      "exit308": 6130,
      "exit117": 6131,
      "exit1112": 6132,
      "exit1147": 6133,
      "exit372": 6134,
      "exit378": 6135,
      "exit730": 6136,
      "exit717": 6137,
      "exit761": 6138,
      "exit312": 6139,
      "exit469": 6140,
      "exit387": 6141,
      "_ZNSt6vectorIN5boost9sub_matchIN9__gnu_cxx17__normal_iteratorIPKcNSt7__cxx1112basic_stringIcSt11char_traitsIcESaIcEEEEEEESaISD_EEixEm": 6142,
      "_ZNSt6vectorIcSaIcEE": 6143,
      "exit601": 6144,
      "exit607": 6145,
      "exit704": 6146,
      "exit708": 6147,
      "5QPairI7QString": 6148,
      "exit359": 6149,
      "exit497": 6150,
      ">::$": 6151,
      "CommonComp": 6152,
      "NS_12regex_traitsIcNS_16cpp_regex_traitsIcEEEEED2Ev": 6153,
      "exit598": 6154,
      "translate_to_zscii": 6155,
      "translate_from_": 6156,
      "exit919": 6157,
      "exit963": 6158,
      "exit1248": 6159,
      "exit1257": 6160,
      "exit774": 6161,
      "exit776": 6162,
      "exit695": 6163,
      "T0_E": 6164,
      "_ZSt8_": 6165,
      "exit504": 6166,
      "i43394743": 6167,
      "_ZN5boost11multi_index6detail": 6168,
      "_ZN5boost10wra": 6169,
      "i4522": 6170,
      "IN5boost13re_detail_50026basic_regex_implementationIc": 6171,
      "INSt7__cxx1112basic_stringIcSt11char_traitsIcESaIcEEE": 6172,
      "exit884": 6173,
      "exit488": 6174,
      "exit563": 6175,
      "exit585": 6176,
      "exit1169": 6177,
      "_ZNSt7__cxx1112basic_stringIcSt11char_traitsIcESaIcEE9_M_assignERKS4_": 6178,
      "exit976": 6179,
      "_ZN5QListI5QPairI7QString": 6180,
      "6detach": 6181,
      "exit673": 6182,
      "exit4226": 6183,
      "exit541": 6184,
      "_withnull": 6185,
      "ConfigS": 6186,
      "_ZN12Falltergeist2UI4": 6187,
      "exit1156": 6188,
      "exit1279": 6189,
      "exit783": 6190,
      "exit1292": 6191,
      "exit1301": 6192,
      "exit1323": 6193,
      "exit1863": 6194,
      "_copyE": 6195,
      "Curve": 6196,
      "vtkCommonComp": 6197,
      "exit1314": 6198,
      "exit1270": 6199,
      "_ZN11OFConditionD2Ev": 6200,
      "hashed_unique": 6201,
      "8allocateERS0_m": 6202,
      "copy": 6203,
      "_RSaIT0_E": 6204,
      "St4pairIbPN5boost13re_detail_50014re_syntax_baseEE": 6205,
      "Ejj": 6206,
      "EC2ERKS2_": 6207,
      "IKN5boost13re_detail_50": 6208,
      "insert69811": 6209,
      "i243340": 6210,
      "IS3_ESaIS3_EE": 6211,
      "bb_load_resource": 6212,
      "6opaqueEjj": 6213,
      "_Alloc_hider": 6214,
      "_ZN5QListIP13Smb4KAuthInfoE": 6215,
      "7New": 6216,
      "Character": 6217,
      "IcEC2Ec": 6218,
      "_ZN12Falltergeist5State7New": 6219,
      "_ZN5boost13re_detail_50019basic_regex_creatorIcNS_12regex_traitsIcNS_16cpp_regex_traitsIcEEEEE": 6220,
      "0E56CA8": 6221,
      "A1837B2E": 6222,
      "BB0E56CA8": 6223,
      "BA4491ED9C": 6224,
      "Value": 6225,
      "pexcept": 6226,
      "sequenc": 6227,
      "alGeometry": 6228,
      "replay_c": 6229,
      "insert43012": 6230,
      "utationalGeometry": 6231,
      "unpack_msgpack": 6232,
      "18184BA4491ED9C": 6233,
      "_ZN5boost13re_detail_5007digraphIcEC2Ec": 6234,
      "strcmp_withnull": 6235,
      "translate_from_zscii": 6236,
      "_ZSt8_Destro": 6237,
      "_ZN5boost10wrapexcept": 6238,
      "IN5boost13re_detail_50026basic_regex_implementationIcNS0_12regex_traitsIcNS0_16cpp_regex_traitsIcEEEEEE": 6239,
      "6detachEv": 6240,
      "vtkCommonComputationalGeometry": 6241,
      "IKN5boost13re_detail_50031cpp_regex_traits_implementationIcEE": 6242,
      "_ZN12Falltergeist5State7NewGame": 6243,
      "A1837B2EBB0E56CA8": 6244,
      "18184BA4491ED9CA1837B2EBB0E56CA8": 6245,
      "vtkCommonComputationalGeometryPython": 6246,
      "%\".@": 6247,
      "3l": 6248,
      "3UO": 6249,
      "423": 6250,
      "436": 6251,
      "540": 6252,
      "5stat": 6253,
      "5661": 6254,
      "613": 6255,
      "659": 6256,
      "657": 6257,
      "650": 6258,
      "716": 6259,
      "723": 6260,
      "734": 6261,
      "789": 6262,
      "7wx": 6263,
      "7_RSaIT0_E": 6264,
      "8ac": 6265,
      "879": 6266,
      "8_S": 6267,
      "8_ESt4less": 6268,
      "939": 6269,
      "969": 6270,
      "983": 6271,
      "Ay": 6272,
      "Bo": 6273,
      "D_S": 6274,
      "E_": 6275,
      "ENS0_": 6276,
      "E_EEEE": 6277,
      "Enum": 6278,
      "I7wx": 6279,
      "Pl": 6280,
      "Po": 6281,
      "PI7wx": 6282,
      "QS": 6283,
      "Wid": 6284,
      "_h": 6285,
      "_ar": 6286,
      "_ds": 6287,
      "_type": 6288,
      "_init": 6289,
      "_const": 6290,
      "_packet": 6291,
      "ance": 6292,
      "aSc": 6293,
      "b8ac": 6294,
      "e4": 6295,
      "eb0": 6296,
      "eam": 6297,
      "f77": 6298,
      "fference": 6299,
      "fc8": 6300,
      "heck": 6301,
      "ign": 6302,
      "nat": 6303,
      "ore": 6304,
      "p1": 6305,
      "p2": 6306,
      "pi": 6307,
      "run": 6308,
      "tm": 6309,
      "t21": 6310,
      "t49": 6311,
      "t102": 6312,
      "t223": 6313,
      "ument": 6314,
      "vp": 6315,
      "v77": 6316,
      "v34": 6317,
      "v94": 6318,
      "3225": 6319,
      "als": 6320,
      "in1": 6321,
      "in3": 6322,
      "in7": 6323,
      "in16": 6324,
      "in15": 6325,
      "in20": 6326,
      "in731": 6327,
      "642": 6328,
      "IN3App12PropertyData12PropertySpec": 6329,
      "res": 6330,
      "reset": 6331,
      "i644": 6332,
      "i3295": 6333,
      "_Cur": 6334,
      "exEv": 6335,
      "insert90": 6336,
      "insert88": 6337,
      "insert74": 6338,
      "insert136": 6339,
      "insert215": 6340,
      "insert185": 6341,
      "insert203": 6342,
      "insert536": 6343,
      "insert274": 6344,
      "insert800": 6345,
      "i1126": 6346,
      "EDpOT_": 6347,
      "i819": 6348,
      "i893": 6349,
      "mask32": 6350,
      "mask31": 6351,
      "mask10": 6352,
      "ext23": 6353,
      "ext33": 6354,
      "ext45": 6355,
      "ext37": 6356,
      "ext34": 6357,
      "ext38": 6358,
      "ext58": 6359,
      "ext71": 6360,
      "ext76": 6361,
      "ext84": 6362,
      "ext65": 6363,
      "ext129": 6364,
      "ext92": 6365,
      "ext155": 6366,
      "ext101": 6367,
      "ext116": 6368,
      "ext134": 6369,
      "ext199": 6370,
      "ext262": 6371,
      "ext249": 6372,
      "ed_count": 6373,
      "ed_b": 6374,
      "edPointerI": 6375,
      "lear": 6376,
      "log": 6377,
      "pre28": 6378,
      "pre12": 6379,
      "pre90": 6380,
      "pre118": 6381,
      "pre100": 6382,
      "interpreter": 6383,
      "var180": 6384,
      "st_packet": 6385,
      "load_oper": 6386,
      "trunc80": 6387,
      "trunc48": 6388,
      "trunc22": 6389,
      "trunc34": 6390,
      "trunc46": 6391,
      "trunc54": 6392,
      "trunc82": 6393,
      "trunc233": 6394,
      "trunc257": 6395,
      "trunc305": 6396,
      "trunc307": 6397,
      "trunc245": 6398,
      "trunc301": 6399,
      "trunc176": 6400,
      "shift3": 6401,
      "shift30": 6402,
      "shift14": 6403,
      "shift77": 6404,
      "shift49": 6405,
      "shift85": 6406,
      "shift84": 6407,
      "shift104": 6408,
      "shift124": 6409,
      "shift247": 6410,
      "shift110": 6411,
      "shift304": 6412,
      "shift186": 6413,
      "shift241": 6414,
      "shift250": 6415,
      "shift300": 6416,
      "func380": 6417,
      "func386": 6418,
      "func388": 6419,
      "func379": 6420,
      "func387": 6421,
      "1012": 6422,
      "1041": 6423,
      "1099": 6424,
      "1084": 6425,
      "func428": 6426,
      "func430": 6427,
      "func415": 6428,
      "func413": 6429,
      "func411": 6430,
      "func417": 6431,
      "func426": 6432,
      "func441": 6433,
      "func419": 6434,
      "func418": 6435,
      "func429": 6436,
      "func445": 6437,
      "func452": 6438,
      "func447": 6439,
      "func435": 6440,
      "func455": 6441,
      "func436": 6442,
      "func457": 6443,
      "func446": 6444,
      "func460": 6445,
      "func458": 6446,
      "func454": 6447,
      "func443": 6448,
      "func451": 6449,
      "ic_": 6450,
      "icInstruction": 6451,
      "i1622": 6452,
      "i1621": 6453,
      "i1657": 6454,
      "i1670": 6455,
      "i1688": 6456,
      "i1654": 6457,
      "i1600": 6458,
      "taS": 6459,
      "3000": 6460,
      "1232": 6461,
      "1218": 6462,
      "1200": 6463,
      "ss_": 6464,
      "15di": 6465,
      "15iterator": 6466,
      "exit86": 6467,
      "exit54": 6468,
      "exit655": 6469,
      "exit74": 6470,
      "exit84": 6471,
      "exit82": 6472,
      "exit728": 6473,
      "exit671": 6474,
      "exit104": 6475,
      "exit111": 6476,
      "exit93": 6477,
      "exit155": 6478,
      "exit718": 6479,
      "exit457": 6480,
      "exit163": 6481,
      "exit122": 6482,
      "exit154": 6483,
      "exit159": 6484,
      "exit243": 6485,
      "exit226": 6486,
      "exit290": 6487,
      "exit164": 6488,
      "exit248": 6489,
      "exit369": 6490,
      "exit932": 6491,
      "readScreen": 6492,
      "not32": 6493,
      "not89": 6494,
      "not78": 6495,
      "not82": 6496,
      "not75": 6497,
      "cess_": 6498,
      "1113": 6499,
      "1186": 6500,
      "1142": 6501,
      "11_S": 6502,
      "sole": 6503,
      "2474": 6504,
      "14__": 6505,
      "14QS": 6506,
      "process_": 6507,
      "591": 6508,
      "592": 6509,
      "4112": 6510,
      "4195": 6511,
      "771": 6512,
      "unpack13": 6513,
      "unpack55": 6514,
      "unpack58": 6515,
      "unpack76": 6516,
      "unpack73": 6517,
      "unpack94": 6518,
      "unpack98": 6519,
      "unpack182": 6520,
      "unpack113": 6521,
      "unpack186": 6522,
      "unpack368": 6523,
      "18Smb4K": 6524,
      "i4128": 6525,
      "i466": 6526,
      "i4346": 6527,
      "i4349": 6528,
      "23_Rb_tree": 6529,
      "20regex": 6530,
      "339": 6531,
      "485": 6532,
      "456": 6533,
      "403": 6534,
      "4080": 6535,
      "4006": 6536,
      "3997": 6537,
      "476": 6538,
      "us16": 6539,
      "us19": 6540,
      "us22": 6541,
      "select2": 6542,
      "select7": 6543,
      "select17": 6544,
      "i664": 6545,
      "i631": 6546,
      "i614": 6547,
      "i639": 6548,
      "373": 6549,
      "570": 6550,
      "rapp": 6551,
      "665": 6552,
      "66f19": 6553,
      "i541": 6554,
      "i548": 6555,
      "i552": 6556,
      "i535": 6557,
      "i589": 6558,
      "i560": 6559,
      "i569": 6560,
      "i710": 6561,
      "i715": 6562,
      "i726": 6563,
      "i723": 6564,
      "i757": 6565,
      "i797": 6566,
      "i792": 6567,
      "sub46": 6568,
      "505": 6569,
      "709": 6570,
      "81f77": 6571,
      "cond6": 6572,
      "cond8": 6573,
      "cond32": 6574,
      "cond12": 6575,
      "cond13": 6576,
      "cond23": 6577,
      "cond115": 6578,
      "4find": 6579,
      "892": 6580,
      "899": 6581,
      "peel297": 6582,
      "4658": 6583,
      "4608": 6584,
      "i933": 6585,
      "i990": 6586,
      "4264": 6587,
      "8781f77": 6588,
      "i1016": 6589,
      "i1014": 6590,
      "i1047": 6591,
      "func384": 6592,
      "func371": 6593,
      "func372": 6594,
      "func375": 6595,
      "func376": 6596,
      "func368": 6597,
      "5630": 6598,
      "5621": 6599,
      "func391": 6600,
      "func393": 6601,
      "func397": 6602,
      "func398": 6603,
      "func401": 6604,
      "func403": 6605,
      "func407": 6606,
      "func409": 6607,
      "7627": 6608,
      "76925": 6609,
      "i1820": 6610,
      "func485": 6611,
      "696": 6612,
      "func472": 6613,
      "i1934": 6614,
      "i2000": 6615,
      "func495": 6616,
      "phi15": 6617,
      "ph419": 6618,
      "ph305": 6619,
      "ph316": 6620,
      "NSt15iterator": 6621,
      "683": 6622,
      "v216": 6623,
      "v210": 6624,
      "v219": 6625,
      "v223": 6626,
      "v220": 6627,
      "ive4": 6628,
      "i1732": 6629,
      "sink50": 6630,
      "_traits_w": 6631,
      "St13_Rb_tree_node": 6632,
      "_reque": 6633,
      "!{}": 6634,
      "i4018": 6635,
      "i4073": 6636,
      "i273": 6637,
      "unpack225": 6638,
      "unpack2256": 6639,
      "_ser": 6640,
      "_sign": 6641,
      "i1425": 6642,
      "i1420": 6643,
      "unpack2780": 6644,
      "unpack2707": 6645,
      "unpack3080": 6646,
      "unpack3076": 6647,
      "unpack3007": 6648,
      "unpack3003": 6649,
      "i1227": 6650,
      "a466f19": 6651,
      "i3741": 6652,
      "i3750": 6653,
      "i3530": 6654,
      "direc": 6655,
      "i3420": 6656,
      "unpack2849": 6657,
      "unpack3226": 6658,
      "unpack3222": 6659,
      "unpack2926": 6660,
      "unpack2922": 6661,
      "unpack3153": 6662,
      "1154": 6663,
      "i551": 6664,
      "i4380": 6665,
      "i4344": 6666,
      "i4340": 6667,
      "i4352": 6668,
      "i4347": 6669,
      "Lb1": 6670,
      "i772": 6671,
      "i778": 6672,
      "unpack514": 6673,
      "unpack518": 6674,
      "unpack587": 6675,
      "unpack733": 6676,
      "v160": 6677,
      "IS5_": 6678,
      "v184": 6679,
      "v185": 6680,
      "v189": 6681,
      "exit143": 6682,
      "exit1424": 6683,
      "exit1437": 6684,
      "exit1481": 6685,
      "exit1494": 6686,
      "5310": 6687,
      "exit1687": 6688,
      "nsion": 6689,
      "exit1933": 6690,
      "exit1946": 6691,
      "exit1999": 6692,
      "p_aux": 6693,
      "_iteratorIN5boost13re_detail_5007digraphIcEEEE": 6694,
      "_EES": 6695,
      "param": 6696,
      "11672": 6697,
      "v351": 6698,
      "unpack660": 6699,
      "exit1731": 6700,
      "exit1744": 6701,
      "exit1797": 6702,
      "exit1700": 6703,
      "4642": 6704,
      "i1183": 6705,
      "exit1516": 6706,
      "exit1503": 6707,
      "exit1832": 6708,
      "exit1810": 6709,
      "exit1819": 6710,
      "dmsdos_read_": 6711,
      "74622": 6712,
      "exit418": 6713,
      "exit4116": 6714,
      "_M_get_": 6715,
      "shift213": 6716,
      "INS1_": 6717,
      "i1504": 6718,
      "exit2012": 6719,
      "exit2021": 6720,
      "i1798": 6721,
      "i3358": 6722,
      "unpack664": 6723,
      "exit262": 6724,
      "exit268": 6725,
      "exit658": 6726,
      "739fc8": 6727,
      "unpack2260": 6728,
      "ESaIS8_EE": 6729,
      "exit1059": 6730,
      "exit1046": 6731,
      "exit1002": 6732,
      "i4351": 6733,
      "i4353": 6734,
      "i4355": 6735,
      "i4357": 6736,
      "_ZN12Falltergeist4Game6Object": 6737,
      "i1319": 6738,
      "exit394": 6739,
      "NS0_14re_syntax_base": 6740,
      "exit4281": 6741,
      "ERKS1_": 6742,
      "exit642": 6743,
      "exit303": 6744,
      "exit306": 6745,
      "time_error": 6746,
      "exit1182": 6747,
      "exit1195": 6748,
      "exit376": 6749,
      "i1205": 6750,
      "exit742": 6751,
      "ES7_S": 6752,
      "i1482": 6753,
      "exit3899": 6754,
      "exit3518": 6755,
      "exit3573": 6756,
      "exit444": 6757,
      "trunc1017": 6758,
      "distance": 6759,
      "exit3683": 6760,
      "i4382": 6761,
      "i4383": 6762,
      "i4384": 6763,
      "i4385": 6764,
      "i4387": 6765,
      "i4388": 6766,
      "exit340": 6767,
      "exit495": 6768,
      "i4370": 6769,
      "i4373": 6770,
      "i4374": 6771,
      "i4375": 6772,
      "i4378": 6773,
      "i4379": 6774,
      "exit592": 6775,
      "shared_count": 6776,
      "exit3463": 6777,
      "exit945": 6778,
      "exit989": 6779,
      "exit1217": 6780,
      "exit1226": 6781,
      "exit1239": 6782,
      "exit1204": 6783,
      "exit221": 6784,
      "i3475": 6785,
      "Console": 6786,
      "envp": 6787,
      "exit570": 6788,
      "exit793": 6789,
      "exit796": 6790,
      "_traitsIT_E": 6791,
      "INSt7__cxx1112basic_stringIcSt11char_traitsIcESaIcEEEE": 6792,
      "5_EvT_S": 6793,
      "i3585": 6794,
      "exit482": 6795,
      "ISt23_Rb_tree": 6796,
      "trunc724": 6797,
      "indexed_b": 6798,
      "i4565": 6799,
      "ext44286": 6800,
      "exit831": 6801,
      "exit818": 6802,
      "exit407": 6803,
      "exit4061": 6804,
      "exit1138": 6805,
      "insert607": 6806,
      "exit539": 6807,
      "exit1125": 6808,
      "exit809": 6809,
      "bb_nat": 6810,
      "select1415": 6811,
      "selectcmp2": 6812,
      "ext32338": 6813,
      "_SH_SH_SH_SH_SH_SH_SH_SH": 6814,
      "9_S9_S9_S9_S9_S9_S9_S9_S": 6815,
      "G_SG_SG_SG_SG_SG_SG_SG_S": 6816,
      "_ZN12Falltergeist6Format3Txt5Lexer3l": 6817,
      "haredPointerI": 6818,
      "insert4873": 6819,
      "_ZNSt12__shared_ptrIN5boost13re_detail_50026basic_regex_implementationIcNS0_12regex_traitsIcNS0_16cpp_regex_traitsIcEEEEEE": 6820,
      "insert128259314": 6821,
      "p_s1": 6822,
      "p_s2": 6823,
      "exit4336": 6824,
      "SaIS5_EE": 6825,
      "_ZNK12Falltergeist5Input5Mouse": 6826,
      "St10_Select1stIS8_ESt4less": 6827,
      "IdLi0": 6828,
      "_ZN19FBC": 6829,
      "_ZNSt10shared_ptrIN5boost13re_detail_50020named_subexpressions": 6830,
      "_relocateEPS": 6831,
      "BasicInstruction": 6832,
      "path": 6833,
      "Smb4KConfigPage": 6834,
      "yIPNSt7__cxx1112basic_stringIcSt11char_traitsIcESaIcEEES5_EvT_S": 6835,
      "20back_insert_iteratorINSt7__cxx1112basic_stringIcSt11char_traitsIcESaIcEEEE": 6836,
      "21cpp_regex_traits_baseIcEE": 6837,
      "_ZN11opencascade6handleI13Standard_TypeEC2EPKS1_": 6838,
      "sTeam": 6839,
      "INSt7__cxx1112basic_stringIcSt11char_traitsIcESaIcEEESt4pairIKS": 6840,
      "_copyEP": 6841,
      "St4pairIbPN5boost13re_detail_50014re_syntax_baseEESaIS5_EE": 6842,
      "_ZSt8_DestroyIPNSt7__cxx1112basic_stringIcSt11char_traitsIcESaIcEEES5_EvT_S": 6843,
      "_ZN5boost10wrapexceptISt": 6844,
      "5stateEv": 6845,
      "AyPI7wx": 6846,
      "Poly": 6847,
      "_array": 6848,
      "_dsp_aux": 6849,
      "_typeES7_S": 6850,
      "_const_iteratorIN5boost13re_detail_5007digraphIcEEEE": 6851,
      "aScore": 6852,
      "b8ac739fc8": 6853,
      "eb05": 6854,
      "fference_typeES7_S": 6855,
      "runtime_error": 6856,
      "in73105": 6857,
      "insert90329": 6858,
      "load_operand": 6859,
      "shift304378": 6860,
      "shift300370": 6861,
      "15difference_typeES7_S": 6862,
      "not75107": 6863,
      "2474a466f19": 6864,
      "14__shared_count": 6865,
      "14QSharedPointerI": 6866,
      "18Smb4KCustomOptions": 6867,
      "20regex_traits_w": 6868,
      "rapper": 6869,
      "8781f772474a466f19": 6870,
      "769254264": 6871,
      "NSt15iterator_traitsIT_E": 6872,
      "_request_packet": 6873,
      "dmsdos_read_cluster": 6874,
      "NS0_14re_syntax_baseE": 6875,
      "distanceISt23_Rb_tree": 6876,
      "bb_native4": 6877,
      "_ZN12Falltergeist6Format3Txt5Lexer3lexEv": 6878,
      "_ZNK12Falltergeist5Input5Mouse5stateEv": 6879,
      "_ZN19FBCBasicInstruction": 6880,
      "_ZSt8_DestroyIPNSt7__cxx1112basic_stringIcSt11char_traitsIcESaIcEEES5_EvT_S7_RSaIT0_E": 6881,
      "AyPI7wx3UO": 6882,
      "_const_iteratorIN5boost13re_detail_5007digraphIcEEEENSt15iterator_traitsIT_E": 6883,
      "b8ac739fc8eb05": 6884,
      "14__shared_countI": 6885,
      "14QSharedPointerI18Smb4KCustomOptions": 6886,
      "20regex_traits_wrapper": 6887,
      "8781f772474a466f19b8ac739fc8eb05": 6888,
      "distanceISt23_Rb_tree_const_iteratorIN5boost13re_detail_5007digraphIcEEEENSt15iterator_traitsIT_E": 6889,
      "distanceISt23_Rb_tree_const_iteratorIN5boost13re_detail_5007digraphIcEEEENSt15iterator_traitsIT_E15difference_typeES7_S": 6890,
      "086": 6891,
      "0107": 6892,
      "2n": 6893,
      "3re": 6894,
      "3tag": 6895,
      "4mp": 6896,
      "549": 6897,
      "560": 6898,
      "6mem": 6899,
      "686": 6900,
      "634": 6901,
      "7add": 6902,
      "724": 6903,
      "740": 6904,
      "755": 6905,
      "751": 6906,
      "8Q": 6907,
      "814": 6908,
      "848": 6909,
      "8_M_": 6910,
      "8_St20forward_iterator_tag": 6911,
      "921": 6912,
      "9sequenc": 6913,
      ">\",": 6914,
      "Are": 6915,
      "Bytes": 6916,
      "Do": 6917,
      "D_EEEE": 6918,
      "Ex": 6919,
      "Hash": 6920,
      "IL": 6921,
      "Ide": 6922,
      "IPK": 6923,
      "ISa": 6924,
      "KCo": 6925,
      "Of": 6926,
      "QList": 6927,
      "S3_": 6928,
      "S8_EE": 6929,
      "Var": 6930,
      "_con": 6931,
      "_do": 6932,
      "_set": 6933,
      "_List": 6934,
      "_table": 6935,
      "_unique": 6936,
      "ant": 6937,
      "ange": 6938,
      "aES": 6939,
      "c_S": 6940,
      "cument": 6941,
      "dcast": 6942,
      "fin": 6943,
      "h_": 6944,
      "htm": 6945,
      "i617": 6946,
      "iant": 6947,
      "kele": 6948,
      "l_co": 6949,
      "mbo": 6950,
      "prite": 6951,
      "t44": 6952,
      "x7add": 6953,
      "yINS0_": 6954,
      "undo": 6955,
      "tr15": 6956,
      "iner": 6957,
      "ark": 6958,
      "IN19": 6959,
      "IN4mp": 6960,
      "rent": 6961,
      "reConfigS": 6962,
      "i646": 6963,
      "i648": 6964,
      "i649": 6965,
      "er3": 6966,
      "erase": 6967,
      "erES": 6968,
      "oadcast": 6969,
      "insert14": 6970,
      "insert41": 6971,
      "insert66": 6972,
      "insert58": 6973,
      "insert51": 6974,
      "insert107": 6975,
      "insert168": 6976,
      "insert186": 6977,
      "insert264": 6978,
      "insert184": 6979,
      "insert224": 6980,
      "insert777": 6981,
      "insert_unique": 6982,
      "ton8": 6983,
      "i864": 6984,
      "i859": 6985,
      "i877": 6986,
      "i890": 6987,
      "i899": 6988,
      "ext39": 6989,
      "ext125": 6990,
      "ge6": 6991,
      "edINS0_": 6992,
      "16_ch": 6993,
      "lor": 6994,
      "ameEEEE": 6995,
      "pre16": 6996,
      "pre81": 6997,
      "pre84": 6998,
      "pre65": 6999,
      "pre131": 7000,
      "pre206": 7001,
      "pre706": 7002,
      "var177": 7003,
      "var144": 7004,
      "var136": 7005,
      "var170": 7006,
      "var179": 7007,
      "broadcast": 7008,
      "d_get_": 7009,
      "trunc90": 7010,
      "trunc81": 7011,
      "trunc97": 7012,
      "trunc71": 7013,
      "trunc62": 7014,
      "trunc91": 7015,
      "trunc98": 7016,
      "trunc111": 7017,
      "trunc238": 7018,
      "trunc109": 7019,
      "trunc228": 7020,
      "trunc100": 7021,
      "trunc121": 7022,
      "trunc188": 7023,
      "trunc249": 7024,
      "shift79": 7025,
      "shift87": 7026,
      "shift74": 7027,
      "shift187": 7028,
      "shift101": 7029,
      "shift309": 7030,
      "func390": 7031,
      "func370": 7032,
      "10indexed_b": 7033,
      "ntity": 7034,
      "func432": 7035,
      "func459": 7036,
      "func421": 7037,
      "func438": 7038,
      "func479": 7039,
      "func449": 7040,
      "func478": 7041,
      "func471": 7042,
      "func476": 7043,
      "i1632": 7044,
      "i1616": 7045,
      "i1659": 7046,
      "i1619": 7047,
      "i1602": 7048,
      "stora": 7049,
      "storeb": 7050,
      "tainer": 7051,
      "15QList": 7052,
      "exit52": 7053,
      "exit21": 7054,
      "exit87": 7055,
      "exit230": 7056,
      "exit96": 7057,
      "exit105": 7058,
      "exit187": 7059,
      "exit557": 7060,
      "exit114": 7061,
      "exit555": 7062,
      "exit649": 7063,
      "exit434": 7064,
      "exit363": 7065,
      "exit401": 7066,
      "exit335": 7067,
      "exit180": 7068,
      "i3413": 7069,
      "not42": 7070,
      "13hashed_unique": 7071,
      "11ra": 7072,
      "24_M_get_": 7073,
      "14basic": 7074,
      "14Do": 7075,
      "fix": 7076,
      "phi309": 7077,
      "date": 7078,
      "pcode": 7079,
      "2510": 7080,
      "1967": 7081,
      "i464": 7082,
      "i477": 7083,
      "23564": 7084,
      "445": 7085,
      "448": 7086,
      "44404": 7087,
      "user_": 7088,
      "select74": 7089,
      "5504": 7090,
      "i620": 7091,
      "i661": 7092,
      "i600": 7093,
      "i675": 7094,
      "i520": 7095,
      "i732": 7096,
      "i712": 7097,
      "i735": 7098,
      "i767": 7099,
      "i756": 7100,
      "500": 7101,
      "701": 7102,
      "peel293": 7103,
      "peel295": 7104,
      "peel278": 7105,
      "874": 7106,
      "ffset": 7107,
      "i1004": 7108,
      "i1007": 7109,
      "func382": 7110,
      "func374": 7111,
      "func378": 7112,
      "565": 7113,
      "IcNS_12regex_traitsIcNS_16cpp_regex_traitsIcEEEEED2Ev": 7114,
      "func400": 7115,
      "func469": 7116,
      "ing_sign": 7117,
      "func474": 7118,
      "func494": 7119,
      "_ctr": 7120,
      "ph17": 7121,
      "ph53": 7122,
      "ph101": 7123,
      "phi114": 7124,
      "phi125": 7125,
      "var172": 7126,
      "i1724": 7127,
      "i2383": 7128,
      "_ZNSt14__shared_countI": 7129,
      "var163": 7130,
      "var166": 7131,
      "sink144": 7132,
      "sink210": 7133,
      "i2923564": 7134,
      "lcssa87": 7135,
      "i4066": 7136,
      "hoice": 7137,
      "_ZN9QCo": 7138,
      "_ZN9QtPrivate8RefCount3re": 7139,
      "StringHash": 7140,
      "7QStringRK": 7141,
      "_countEv": 7142,
      "i3415": 7143,
      "i4566": 7144,
      "i4561": 7145,
      "i3848": 7146,
      "ext210": 7147,
      "ext226": 7148,
      "_iterator_tag": 7149,
      "_EESaIS": 7150,
      "C2ERKNS_8Graphics5PointE": 7151,
      "trunc686": 7152,
      "exit179": 7153,
      "gep46": 7154,
      "17__normal_iteratorIP": 7155,
      "1001": 7156,
      "i902": 7157,
      "i908": 7158,
      "Init": 7159,
      "EPl": 7160,
      "shift210": 7161,
      "exit266": 7162,
      "exit215": 7163,
      "update": 7164,
      "exit274": 7165,
      "exit3951": 7166,
      "_RKS": 7167,
      "enti": 7168,
      "NS0_13hashed_unique": 7169,
      "add_player": 7170,
      "exit301": 7171,
      "exit3793": 7172,
      "_ZN5boost13re_detail_50011ra": 7173,
      "exit318": 7174,
      "ERK7QStringRK": 7175,
      "m_htm": 7176,
      "exit446": 7177,
      "pre218": 7178,
      "exit361": 7179,
      "ext815": 7180,
      "exit341": 7181,
      "exit345": 7182,
      "exit496": 7183,
      "lcssa130": 7184,
      "9sub_matchISE_EEEE": 7185,
      "i44534798": 7186,
      "i44534796": 7187,
      "exit665": 7188,
      "IN9__gnu_cxx17__normal_iteratorIPKcNSt7__cxx1112basic_stringIcSt11char_traitsIcESaIcEEEEESaINS0_": 7189,
      "_EEEENS0_13hashed_unique": 7190,
      "ERS1_": 7191,
      "_ZN5QListIN19": 7192,
      "i4284": 7193,
      "exit4577": 7194,
      "INS0_13match_results": 7195,
      "INS0_6mem": 7196,
      "i333394": 7197,
      "insert520": 7198,
      "Keybo": 7199,
      "w_stora": 7200,
      "exit487": 7201,
      "read_long": 7202,
      "read_sock": 7203,
      "shift317": 7204,
      "send_ts3": 7205,
      "send_broadcast": 7206,
      "ItemLocation": 7207,
      "ItemEnum": 7208,
      "ItemERK7QStringRK": 7209,
      "_ZNSt16allocator_traitsISaI": 7210,
      "_ZNSt6vectorIhSaIhEE": 7211,
      "_ZNSt6vectorIlSaIl": 7212,
      "use_countEv": 7213,
      "_ZNSt12_Vector_baseIiSaIi": 7214,
      "eloop_re": 7215,
      "pending_sign": 7216,
      "BaseC2ERKNS_8Graphics5PointE": 7217,
      "exit549": 7218,
      "xform_htm": 7219,
      "insert15206": 7220,
      "sock_table": 7221,
      "_ZNSt8_Rb_treeINSt7__cxx1112basic_stringIcSt11char_traitsIcESaIcEEESt4pairIKS": 7222,
      "eloop_unregister_": 7223,
      "eloop_process_": 7224,
      "eloop_sock_table": 7225,
      "_copy_": 7226,
      "_ZNSt12__shared_ptrIN5boost29regex_iterator_implementationIN9__gnu_cxx17__normal_iteratorIPKcNSt7__cxx1112basic_stringIcSt11char_traitsIcESaIcEEEEEcNS0_12regex_traitsIcNS0_16cpp_regex_traitsIcEEEEEELNS2_12_Lock_policyE2": 7227,
      "3App14Do": 7228,
      "5_S5_E": 7229,
      "Current": 7230,
      "insert3371243": 7231,
      "shift1055": 7232,
      "_char_set": 7233,
      "l_2n": 7234,
      "EEE8allocateERS6_m": 7235,
      "_ZN11OFConditionaSERKS": 7236,
      "IJS": 7237,
      "IdED2Ev": 7238,
      "trunc5115": 7239,
      "13CStringHash": 7240,
      "ext126258313": 7241,
      "_ZN9__gnu_cxx13new_allocatorISt": 7242,
      "S2_S": 7243,
      "6Offset": 7244,
      "insert6121198": 7245,
      "4NameEEEE": 7246,
      "9_Ide": 7247,
      "IfED2Ev": 7248,
      "i44534801": 7249,
      "St4pairIKi": 7250,
      "_ZNSt7__cxx1112basic_stringIcSt11char_traitsIcESaIcEE12_M_constructIPKcEEvT_S8_St20forward_iterator_tag": 7251,
      "IN5boost13re_detail_50020named_subexpressions4nameESaIS3_EE": 7252,
      "_ZN12Falltergeist8Graphics6Sprite": 7253,
      "TopLoc_S": 7254,
      "14recursion_infoINS0_13match_results": 7255,
      "6Choice": 7256,
      "TextAre": 7257,
      "_and_": 7258,
      "vEET_S": 7259,
      "wpa_ctr": 7260,
      "insert25412": 7261,
      "_ZSt4copy": 7262,
      "_ZN5boost11multi_index6detail12": 7263,
      "_ZN12Falltergeist2UI4BaseC2ERKNS_8Graphics5PointE": 7264,
      "CharacterEv": 7265,
      "_ZN12Falltergeist5State7NewGame16_ch": 7266,
      "Box7add": 7267,
      "WidgetItem": 7268,
      "pid_get_": 7269,
      "reset_cursor": 7270,
      "_Curve": 7271,
      "Lb1EE": 7272,
      "IS5_ESaIS8_EE": 7273,
      "_ZN12Falltergeist4Game6ObjectC2Ev": 7274,
      "_ZNSt12__shared_ptrIN5boost13re_detail_50026basic_regex_implementationIcNS0_12regex_traitsIcNS0_16cpp_regex_traitsIcEEEEEELN9__gnu_cxx12_Lock_policyE2EED2Ev": 7275,
      "St10_Select1stIS8_ESt4lessIS5_ESaIS8_EE": 7276,
      "_ZNSt10shared_ptrIN5boost13re_detail_50020named_subexpressionsEED2Ev": 7277,
      "3tagIN4mp": 7278,
      "8QVar": 7279,
      "9sequencedINS0_": 7280,
      "KCoreConfigS": 7281,
      "OfItemLocation": 7282,
      "_container": 7283,
      "angeCharacterEv": 7284,
      "cumentObject": 7285,
      "keleton8": 7286,
      "l_color": 7287,
      "mboBox7add": 7288,
      "yINS0_9sequencedINS0_": 7289,
      "insert_unique_pos": 7290,
      "10indexed_byINS0_9sequencedINS0_": 7291,
      "15QListWidgetItem": 7292,
      "24_M_get_insert_unique_pos": 7293,
      "14basic_char_set": 7294,
      "user_name": 7295,
      "i238344404": 7296,
      "i292356415": 7297,
      "_ZN9QComboBox7add": 7298,
      "_ZN9QtPrivate8RefCount3refEv": 7299,
      "_ZN5boost13re_detail_50011raw_stora": 7300,
      "IN9__gnu_cxx17__normal_iteratorIPKcNSt7__cxx1112basic_stringIcSt11char_traitsIcESaIcEEEEESaINS0_9sub_matchISE_EEEE": 7301,
      "_ZN5QListIN19KCoreConfigS": 7302,
      "INS0_6member": 7303,
      "Keyboar": 7304,
      "send_ts3_request_packet": 7305,
      "ItemEnum6Choice": 7306,
      "ItemERK7QStringRK8QVar": 7307,
      "_ZNSt12_Vector_baseIiSaIiEED2Ev": 7308,
      "pending_signals": 7309,
      "xform_html_color": 7310,
      "_ZNSt8_Rb_treeINSt7__cxx1112basic_stringIcSt11char_traitsIcESaIcEEESt4pairIKS5_S5_E": 7311,
      "eloop_process_pending_signals": 7312,
      "eloop_sock_table_": 7313,
      "3App14DocumentObject": 7314,
      "l_2naES": 7315,
      "_ZN11OFConditionaSERKS_": 7316,
      "13CStringHasherES": 7317,
      "6OffsetEEEE": 7318,
      "4NameEEEEENS": 7319,
      "9_Identity": 7320,
      "_ZN12Falltergeist8Graphics6Sprite6opaqueEjj": 7321,
      "TopLoc_SList": 7322,
      "14recursion_infoINS0_13match_resultsIN9__gnu_cxx17__normal_iteratorIPKcNSt7__cxx1112basic_stringIcSt11char_traitsIcESaIcEEEEESaINS0_9sub_matchISE_EEEE": 7323,
      "_ZN12Falltergeist5State7NewGame16_changeCharacterEv": 7324,
      "pid_get_user_name": 7325,
      "3tagIN4mpl_2naES": 7326,
      "keleton8ItemEnum6Choice": 7327,
      "10indexed_byINS0_9sequencedINS0_3tagIN4mpl_2naES": 7328,
      "_ZN9QComboBox7addItemERK7QStringRK8QVar": 7329,
      "_ZN5boost13re_detail_50011raw_storage6": 7330,
      "_ZN5QListIN19KCoreConfigSkeleton8ItemEnum6Choice": 7331,
      "_ZNSt8_Rb_treeINSt7__cxx1112basic_stringIcSt11char_traitsIcESaIcEEESt4pairIKS5_S5_ESt10_Select1stIS8_ESt4lessIS5_ESaIS8_EE": 7332,
      "_ZN9QComboBox7addItemERK7QStringRK8QVariant": 7333,
      "_ZN5QListIN19KCoreConfigSkeleton8ItemEnum6ChoiceEED2Ev": 7334,
      "\"}": 7335,
      "030": 7336,
      "041": 7337,
      "037": 7338,
      "038": 7339,
      "054": 7340,
      "074": 7341,
      "0106": 7342,
      "0IS": 7343,
      "0110": 7344,
      "0ii": 7345,
      "1156": 7346,
      "1_E": 7347,
      "2_EE": 7348,
      "2_RS": 7349,
      "2ERKS1_": 7350,
      "331": 7351,
      "377": 7352,
      "3mpl": 7353,
      "4t": 7354,
      "459": 7355,
      "422": 7356,
      "467": 7357,
      "4_EE": 7358,
      "4d6": 7359,
      "541": 7360,
      "577": 7361,
      "525": 7362,
      "588": 7363,
      "5120": 7364,
      "5_m": 7365,
      "5389": 7366,
      "632": 7367,
      "664": 7368,
      "6insert": 7369,
      "631": 7370,
      "6sy": 7371,
      "624": 7372,
      "625": 7373,
      "639": 7374,
      "6_S": 7375,
      "6153": 7376,
      "6320": 7377,
      "715": 7378,
      "722": 7379,
      "737": 7380,
      "750": 7381,
      "767": 7382,
      "7vector": 7383,
      "7_St": 7384,
      "810": 7385,
      "877": 7386,
      "820": 7387,
      "829": 7388,
      "846": 7389,
      "8function": 7390,
      "8allocateEmPKv": 7391,
      "8Keyboar": 7392,
      "9re": 7393,
      "9nt": 7394,
      "962": 7395,
      "A_": 7396,
      "B_SB_SB_SB_SB_SB_SB_SB_SB": 7397,
      "Block": 7398,
      "C_i": 7399,
      "E6": 7400,
      "EN": 7401,
      "Ed": 7402,
      "E12": 7403,
      "ESt": 7404,
      "FIR": 7405,
      "F_E": 7406,
      "F_EEEE": 7407,
      "G_": 7408,
      "HCurve": 7409,
      "IF": 7410,
      "IT": 7411,
      "Ib": 7412,
      "IT_E": 7413,
      "Non": 7414,
      "QW": 7415,
      "Sto": 7416,
      "S3_St": 7417,
      "S1_EE": 7418,
      "SF_E": 7419,
      "T1_": 7420,
      "Wp": 7421,
      "_1": 7422,
      "_ed": 7423,
      "_le": 7424,
      "_free": 7425,
      "_rec": 7426,
      "_back": 7427,
      "_end": 7428,
      "_move": 7429,
      "_direc": 7430,
      "_fix": 7431,
      "_HCurve": 7432,
      "aIS": 7433,
      "aList": 7434,
      "aWp": 7435,
      "bj": 7436,
      "bin": 7437,
      "culat": 7438,
      "dele": 7439,
      "ead": 7440,
      "ension": 7441,
      "fptr": 7442,
      "fshl": 7443,
      "format": 7444,
      "fcount": 7445,
      "gory": 7446,
      "gp_": 7447,
      "hex": 7448,
      "head": 7449,
      "i909": 7450,
      "i_value": 7451,
      "kPointerI": 7452,
      "lr": 7453,
      "lay": 7454,
      "ov": 7455,
      "pon": 7456,
      "qserver_": 7457,
      "ry": 7458,
      "ral": 7459,
      "sEv": 7460,
      "spon": 7461,
      "t30": 7462,
      "t80": 7463,
      "t26": 7464,
      "t25": 7465,
      "t23": 7466,
      "t48": 7467,
      "t40": 7468,
      "t47": 7469,
      "t55": 7470,
      "t37": 7471,
      "t67": 7472,
      "t74": 7473,
      "t68": 7474,
      "t225": 7475,
      "t113": 7476,
      "t224": 7477,
      "ver": 7478,
      "yte": 7479,
      "unswitch": 7480,
      "%..": 7481,
      "321": 7482,
      "3241": 7483,
      "alph": 7484,
      "alculat": 7485,
      "in5": 7486,
      "in19": 7487,
      "in21": 7488,
      "6442": 7489,
      "register_": 7490,
      "resize": 7491,
      "i642": 7492,
      "_Check": 7493,
      "var_o": 7494,
      "insert2": 7495,
      "insert40": 7496,
      "insert39": 7497,
      "insert35": 7498,
      "insert78": 7499,
      "insert84": 7500,
      "insert159": 7501,
      "insert101": 7502,
      "insert162": 7503,
      "insert189": 7504,
      "insert2105": 7505,
      "insert265": 7506,
      "insert597": 7507,
      "insert213": 7508,
      "i1178": 7509,
      "i1310": 7510,
      "i1108": 7511,
      "i1244": 7512,
      "i1121": 7513,
      "i1222": 7514,
      "i1165": 7515,
      "2817": 7516,
      "i886": 7517,
      "i814": 7518,
      "i845": 7519,
      "i836": 7520,
      "i870": 7521,
      "i881": 7522,
      "i888": 7523,
      "i861": 7524,
      "i860": 7525,
      "i858": 7526,
      "i869": 7527,
      "i874": 7528,
      "i873": 7529,
      "i868": 7530,
      "i882": 7531,
      "i895": 7532,
      "i883": 7533,
      "i894": 7534,
      "i896": 7535,
      "destruc": 7536,
      "abet": 7537,
      "mask4": 7538,
      "mask140": 7539,
      "ext128": 7540,
      "ext15": 7541,
      "ext41": 7542,
      "ext52": 7543,
      "ext47": 7544,
      "ext90": 7545,
      "ext89": 7546,
      "ext46": 7547,
      "extEv": 7548,
      "ext87": 7549,
      "ext60": 7550,
      "ext43": 7551,
      "ext99": 7552,
      "ext63": 7553,
      "ext104": 7554,
      "ext96": 7555,
      "ext106": 7556,
      "ext105": 7557,
      "ext107": 7558,
      "ext187": 7559,
      "ext122": 7560,
      "ext154": 7561,
      "ext182": 7562,
      "ext931": 7563,
      "ext430": 7564,
      "ext296": 7565,
      "ext110": 7566,
      "ext492": 7567,
      "ext113": 7568,
      "ext222": 7569,
      "ext169": 7570,
      "ext509": 7571,
      "ext153": 7572,
      "ext160": 7573,
      "ext190": 7574,
      "ext196": 7575,
      "ext147": 7576,
      "ext172": 7577,
      "ext281": 7578,
      "ext200": 7579,
      "ext387": 7580,
      "ext237": 7581,
      "ext313": 7582,
      "ext473": 7583,
      "ext453": 7584,
      "ext522": 7585,
      "ext610": 7586,
      "ext585": 7587,
      "extension": 7588,
      "le66": 7589,
      "le105": 7590,
      "le233": 7591,
      "le171": 7592,
      "le398": 7593,
      "le_repeat": 7594,
      "le721": 7595,
      "le715": 7596,
      "i1288": 7597,
      "1615": 7598,
      "16exception": 7599,
      "16TopoDS_T": 7600,
      "3182": 7601,
      "pre17": 7602,
      "pre20": 7603,
      "pre82": 7604,
      "pre272": 7605,
      "pre409": 7606,
      "pre225": 7607,
      "pre226": 7608,
      "pre386": 7609,
      "pre172": 7610,
      "pre138": 7611,
      "pre390": 7612,
      "pre166": 7613,
      "pre387": 7614,
      "internal": 7615,
      "integ": 7616,
      "var140": 7617,
      "var155": 7618,
      "var150": 7619,
      "var158": 7620,
      "var156": 7621,
      "var183": 7622,
      "trunc15": 7623,
      "trunc17": 7624,
      "trunc52": 7625,
      "trunc79": 7626,
      "trunc99": 7627,
      "trunc83": 7628,
      "trunc72": 7629,
      "trunc94": 7630,
      "trunc315": 7631,
      "trunc280": 7632,
      "trunc107": 7633,
      "trunc240": 7634,
      "trunc189": 7635,
      "trunc206": 7636,
      "trunc145": 7637,
      "trunc117": 7638,
      "trunc241": 7639,
      "trunc175": 7640,
      "trunc297": 7641,
      "trunc253": 7642,
      "trunc288": 7643,
      "trunc309": 7644,
      "trunc327": 7645,
      "trunc491": 7646,
      "shift12": 7647,
      "shift15": 7648,
      "shift17": 7649,
      "shift80": 7650,
      "shift26": 7651,
      "shift59": 7652,
      "shift39": 7653,
      "shift35": 7654,
      "shift55": 7655,
      "shift36": 7656,
      "shift89": 7657,
      "shift42": 7658,
      "shift69": 7659,
      "shift63": 7660,
      "shift62": 7661,
      "shift95": 7662,
      "shift72": 7663,
      "shift103": 7664,
      "shift115": 7665,
      "shift236": 7666,
      "shift107": 7667,
      "shift194": 7668,
      "shift204": 7669,
      "shift154": 7670,
      "shift182": 7671,
      "shift238": 7672,
      "shift244": 7673,
      "shift311": 7674,
      "shift109": 7675,
      "shift240": 7676,
      "shift144": 7677,
      "shift296": 7678,
      "shift127": 7679,
      "shift170": 7680,
      "shift189": 7681,
      "shift234": 7682,
      "shift206": 7683,
      "shift117": 7684,
      "shift254": 7685,
      "shift184": 7686,
      "shift288": 7687,
      "shift173": 7688,
      "shift358": 7689,
      "shift340": 7690,
      "10__": 7691,
      "1095": 7692,
      "func433": 7693,
      "func439": 7694,
      "func422": 7695,
      "func466": 7696,
      "func481": 7697,
      "func489": 7698,
      "func453": 7699,
      "i1613": 7700,
      "i1624": 7701,
      "i1614": 7702,
      "i1625": 7703,
      "i1623": 7704,
      "i1635": 7705,
      "i1638": 7706,
      "i1660": 7707,
      "i1658": 7708,
      "i1663": 7709,
      "i1683": 7710,
      "i1608": 7711,
      "tial": 7712,
      "3075": 7713,
      "303182": 7714,
      "1219": 7715,
      "12TextAre": 7716,
      "12QW": 7717,
      "1511": 7718,
      "1571": 7719,
      "exit23": 7720,
      "exit156": 7721,
      "exit102": 7722,
      "i3576": 7723,
      "i3805": 7724,
      "i3898": 7725,
      "not2": 7726,
      "not26": 7727,
      "not77": 7728,
      "not47": 7729,
      "not55": 7730,
      "not66": 7731,
      "not38": 7732,
      "not50": 7733,
      "not49": 7734,
      "not54": 7735,
      "not85": 7736,
      "not105": 7737,
      "not107": 7738,
      "not131": 7739,
      "not112": 7740,
      "not333": 7741,
      "not300": 7742,
      "13match_resultsIN9__gnu_cxx17__normal_iteratorIPKcNSt7__cxx1112basic_stringIcSt11char_traitsIcESaIcEEEEESaINS_9sub_matchIS": 7743,
      "11__": 7744,
      "1199": 7745,
      "17_M_re": 7746,
      "17integ": 7747,
      "terObject": 7748,
      "terISt": 7749,
      "se_": 7750,
      "send": 7751,
      "1420": 7752,
      "14_S": 7753,
      "phi306": 7754,
      "disable": 7755,
      "41__": 7756,
      "rit_ed": 7757,
      "ritterObject": 7758,
      "5begin": 7759,
      "19285": 7760,
      "PKNS0_": 7761,
      "unpack9": 7762,
      "unpack128": 7763,
      "unpack80": 7764,
      "unpack52": 7765,
      "unpack156": 7766,
      "unpack129": 7767,
      "unpack155": 7768,
      "unpack120": 7769,
      "unpack130": 7770,
      "unpack131": 7771,
      "unpack163": 7772,
      "unpack122": 7773,
      "unpack159": 7774,
      "unpack161": 7775,
      "unpack149": 7776,
      "unpack150": 7777,
      "unpack144": 7778,
      "unpack125": 7779,
      "unpack118": 7780,
      "unpack121": 7781,
      "unpack134": 7782,
      "unpack127": 7783,
      "unpack165": 7784,
      "unpack126": 7785,
      "unpack133": 7786,
      "unpack146": 7787,
      "unpack164": 7788,
      "unpack143": 7789,
      "unpack140": 7790,
      "unpack119": 7791,
      "unpack157": 7792,
      "unpack158": 7793,
      "unpack141": 7794,
      "unpack142": 7795,
      "unpack152": 7796,
      "unpack160": 7797,
      "unpack145": 7798,
      "unpack135": 7799,
      "unpack137": 7800,
      "18push": 7801,
      "18BRepAdaptor": 7802,
      "18input": 7803,
      "i4293": 7804,
      "i4286": 7805,
      "20error_": 7806,
      "440": 7807,
      "443": 7808,
      "449": 7809,
      "4437": 7810,
      "ound": 7811,
      "299": 7812,
      "487": 7813,
      "488": 7814,
      "3935": 7815,
      "4763": 7816,
      "us128": 7817,
      "us18": 7818,
      "us178": 7819,
      "us174": 7820,
      "select4": 7821,
      "select31": 7822,
      "select15": 7823,
      "select13": 7824,
      "select33": 7825,
      "select21": 7826,
      "select34": 7827,
      "select230": 7828,
      "select233": 7829,
      "select217": 7830,
      "select187": 7831,
      "351": 7832,
      "357": 7833,
      "367": 7834,
      "i632": 7835,
      "i652": 7836,
      "3748": 7837,
      "2116": 7838,
      "2113": 7839,
      "21basic_regex_": 7840,
      "21_rec": 7841,
      "thread4": 7842,
      "thread7": 7843,
      "thread32": 7844,
      "thread58": 7845,
      "thread62": 7846,
      "579": 7847,
      "5710": 7848,
      "57222": 7849,
      "rag": 7850,
      "i529": 7851,
      "i563": 7852,
      "i5155": 7853,
      "i724": 7854,
      "i786": 7855,
      "i759": 7856,
      "i741": 7857,
      "i736": 7858,
      "i737": 7859,
      "i721": 7860,
      "i750": 7861,
      "i749": 7862,
      "i758": 7863,
      "i751": 7864,
      "i785": 7865,
      "i782": 7866,
      "i706": 7867,
      "_Z41__": 7868,
      "sub477": 7869,
      "sub478": 7870,
      "508": 7871,
      "5019": 7872,
      "EEED2Ev": 7873,
      "EEixEm": 7874,
      "EESt10_Select1stIS": 7875,
      "EESF_E": 7876,
      "cond15": 7877,
      "cond86": 7878,
      "cond25": 7879,
      "cond29": 7880,
      "cond62": 7881,
      "cond109": 7882,
      "cond169": 7883,
      "cond117": 7884,
      "8840": 7885,
      "peel269": 7886,
      "peel294": 7887,
      "peel279": 7888,
      "peel288": 7889,
      "peel273": 7890,
      "peel284": 7891,
      "468": 7892,
      "4637": 7893,
      "i928": 7894,
      "i917": 7895,
      "i959": 7896,
      "i918": 7897,
      "i950": 7898,
      "i960": 7899,
      "i985": 7900,
      "i972": 7901,
      "i975": 7902,
      "i998": 7903,
      "EvN9__gnu_cxx": 7904,
      "_ZN15": 7905,
      "i1064": 7906,
      "i1010": 7907,
      "i1013": 7908,
      "i1086": 7909,
      "i1018": 7910,
      "i1029": 7911,
      "i1022": 7912,
      "i1042": 7913,
      "i1073": 7914,
      "i1000": 7915,
      "i1095": 7916,
      "i1008": 7917,
      "994637": 7918,
      "IcE": 7919,
      "784": 7920,
      "972": 7921,
      "func462": 7922,
      "static_": 7923,
      "i1815": 7924,
      "i1859": 7925,
      "i1837": 7926,
      "i1881": 7927,
      "i1846": 7928,
      "func482": 7929,
      "func484": 7930,
      "ingle_repeat": 7931,
      "692": 7932,
      "693": 7933,
      "i1916": 7934,
      "i1929": 7935,
      "i1960": 7936,
      "i1951": 7937,
      "i1982": 7938,
      "i2017": 7939,
      "_clear": 7940,
      "_crit_ed": 7941,
      "i1530": 7942,
      "i1512": 7943,
      "i1552": 7944,
      "i1587": 7945,
      "off046": 7946,
      "ph304": 7947,
      "NSt7__cxx1112basic_string": 7948,
      "6212": 7949,
      "i1727": 7950,
      "i1780": 7951,
      "i1714": 7952,
      "i1749": 7953,
      "i1758": 7954,
      "_ZNSt7__cxx11": 7955,
      "sink13": 7956,
      "sink72": 7957,
      "sink125": 7958,
      "lcssa998": 7959,
      "SaINS_9sub_matchIS": 7960,
      "_respon": 7961,
      "i4011": 7962,
      "i4050": 7963,
      "i4060": 7964,
      "sroa_idx15": 7965,
      "sroa_idx11": 7966,
      "sroa_idx25": 7967,
      "sroa_idx70": 7968,
      "sroa_idx115": 7969,
      "sroa_idx118": 7970,
      "sroa_idx147": 7971,
      "unpack211": 7972,
      "unpack2123": 7973,
      "unpack2119": 7974,
      "_sa": 7975,
      "_single_repeat": 7976,
      "i1464": 7977,
      "i1477": 7978,
      "7QObject": 7979,
      "unpack278": 7980,
      "unpack2776": 7981,
      "unpack2703": 7982,
      "i2226": 7983,
      "i1332": 7984,
      "i1341": 7985,
      "ectaS": 7986,
      "i3911": 7987,
      "Log": 7988,
      "i3631": 7989,
      "i3686": 7990,
      "pr16": 7991,
      "unpack2853": 7992,
      "i4512": 7993,
      "unpack3149": 7994,
      "dC2ERKS1_": 7995,
      "i592": 7996,
      "i596": 7997,
      "2299": 7998,
      "cli_": 7999,
      "hostapd_cli_cmd": 8000,
      "i773": 8001,
      "i779": 8002,
      "1202": 8003,
      "0_17": 8004,
      "i702": 8005,
      "unpack737": 8006,
      "promoted100": 8007,
      "IS3_E": 8008,
      "select3280": 8009,
      "select3226": 8010,
      "select3270": 8011,
      "select3278": 8012,
      "select3276": 8013,
      "select3274": 8014,
      "select3282": 8015,
      "select3272": 8016,
      "select3298": 8017,
      "select32994637": 8018,
      "9374": 8019,
      "alloc_insert": 8020,
      "partial": 8021,
      "parse_": 8022,
      "fold": 8023,
      "NS_13match_results": 8024,
      "_detail12re": 8025,
      "unpack445": 8026,
      "trunc653": 8027,
      "info_container": 8028,
      "gep3": 8029,
      "gep183": 8030,
      "i1398": 8031,
      "_block": 8032,
      "i1907": 8033,
      "exit137": 8034,
      "i903": 8035,
      "i904": 8036,
      "i905": 8037,
      "i1354": 8038,
      "i1643": 8039,
      "i1648": 8040,
      "17__normal_iteratorIPKcS": 8041,
      "unpack372": 8042,
      "IN9__gnu_cxx17__normal_iteratorIPKcS8_EE": 8043,
      "transfor": 8044,
      "EPNS_": 8045,
      "trunc212": 8046,
      "trunc219285": 8047,
      "i1143": 8048,
      "8375": 8049,
      "i1275": 8050,
      "i1376": 8051,
      "i1385": 8052,
      "_ZNKSt7__cxx1112basic_stringIcSt11char_traitsIcESaIcEE": 8053,
      "_ZNK15QListWidgetItem": 8054,
      "_ZNK12QW": 8055,
      "i1266": 8056,
      "shift231": 8057,
      "shift220": 8058,
      "i1407": 8059,
      "er_extension": 8060,
      "i1771": 8061,
      "exit201": 8062,
      "i1152": 8063,
      "i1793": 8064,
      "i1973": 8065,
      "unpack591": 8066,
      "EmPKc": 8067,
      "EmPKNS0_": 8068,
      "exit283": 8069,
      "i1253": 8070,
      "i1521": 8071,
      "i1705": 8072,
      "i1499": 8073,
      "346305": 8074,
      "trunc341": 8075,
      "1701": 8076,
      "170120": 8077,
      "i1363": 8078,
      "i1543": 8079,
      "i1297": 8080,
      "exit327": 8081,
      "exit392": 8082,
      "exit395": 8083,
      "i1442": 8084,
      "insert722": 8085,
      "exit415": 8086,
      "ERKS0_": 8087,
      "ERKS3_": 8088,
      "lookup2": 8089,
      "_ZN2Py6O": 8090,
      "i195303": 8091,
      "i1872": 8092,
      "i1995": 8093,
      "i1578": 8094,
      "_ZN5boost13re_detail_50015": 8095,
      "_ZN5boost13re_detail_50021basic_regex_": 8096,
      "i1200": 8097,
      "i1451": 8098,
      "ESC_i": 8099,
      "IPN": 8100,
      "_ET0_T_S": 8101,
      "i1894": 8102,
      "_ZNSt6vectorINSt7__cxx1112basic_stringIcSt11char_traitsIcESaIcEEESaIS5_EE": 8103,
      "narrow17": 8104,
      "exit350": 8105,
      "exit358": 8106,
      "m_se": 8107,
      "i1565": 8108,
      "E8allocateEmPKv": 8109,
      "_buf": 8110,
      "exit440": 8111,
      "i3792": 8112,
      "i3796": 8113,
      "INS_12regex_traitsIcNS_16cpp_regex_traitsIcEEEE": 8114,
      "INS_13match_resultsIN9__gnu_cxx17__normal_iteratorIPKcNSt7__cxx1112basic_stringIcSt11char_traitsIcESaIcEEEEESaINS_9sub_matchIS": 8115,
      "_ZN11opencascade6handleI14": 8116,
      "_ZN11opencascade6handleI18BRepAdaptor": 8117,
      "trunc1023": 8118,
      "4_13CStringHasherES": 8119,
      "_St17integ": 8120,
      "5368": 8121,
      "exit366": 8122,
      "ext850": 8123,
      "i1601": 8124,
      "ation_and_": 8125,
      "unpack441": 8126,
      "i3902": 8127,
      "sink1679": 8128,
      "translate_direc": 8129,
      "trunc611752": 8130,
      "unpack148": 8131,
      "osition": 8132,
      "trunc2089": 8133,
      "297178": 8134,
      "_ZSteq": 8135,
      "_ZSt10__": 8136,
      "i3521": 8137,
      "19219": 8138,
      "St4pairImm": 8139,
      "insert1073": 8140,
      "_ZN5boost16exception": 8141,
      "aDm": 8142,
      "trunc278375": 8143,
      "INS0_20error_": 8144,
      "IN5boost13re_detail_50014recursion_infoINS0_13match_resultsIN9__gnu_cxx17__normal_iteratorIPKcNSt7__cxx1112basic_stringIcSt11char_traitsIcESaIcEEEEESaINS0_9sub_matchISE_EEEE": 8145,
      "INSt7__cxx1112basic_stringIcSt11char_traitsIcESaIcEEEEE8allocateERS6_m": 8146,
      "insert58840": 8147,
      "stem": 8148,
      "shift652": 8149,
      "_ZNKSt12__shared_ptr": 8150,
      "_ZNKSt8function": 8151,
      "shift314": 8152,
      "shift319": 8153,
      "ext534": 8154,
      "ext1365": 8155,
      "pre194206": 8156,
      "_ZNSt6vectorIiSaIi": 8157,
      "ENS_20regex_traits_wrapper": 8158,
      "ENS_3mpl": 8159,
      "_ZN5QListI14QSharedPointerI18Smb4KCustomOptions": 8160,
      "eauth": 8161,
      "eakPointerI": 8162,
      "insert2088": 8163,
      "trunc418": 8164,
      "St4lessIS3_ESaIS3_EE": 8165,
      "_ZNSt12_Vector_baseINSt7__cxx1112basic_stringIcSt11char_traitsIcESaIcEEESaIS5_EE": 8166,
      "5339": 8167,
      "hange": 8168,
      "category": 8169,
      "tion_0ii": 8170,
      "_ZN2Py4Non": 8171,
      "minnum": 8172,
      "_constantIb": 8173,
      "_ZN12Falltergeist5Event8Keyboar": 8174,
      "get_param_i_value": 8175,
      "_ZNSt16allocator_traitsISaINSt7__cxx1112basic_stringIcSt11char_traitsIcESaIcEEEEE8allocateERS6_m": 8176,
      "_ZNSt8_Rb_treeIN5boost13re_detail_5007digraphIcEE": 8177,
      "_ZN12Falltergeist2UI12TextAre": 8178,
      "erIL": 8179,
      "trunc232255": 8180,
      "trunc232306": 8181,
      "5_S5_": 8182,
      "insert3371223": 8183,
      "trunc244281": 8184,
      "_repeatESC_i": 8185,
      "exit282_crit_ed": 8186,
      "insert128259323": 8187,
      "insert34339": 8188,
      "_ZNK12Falltergeist4Game": 8189,
      "xform_buf": 8190,
      "insert67253": 8191,
      "trunc653748": 8192,
      "13CritterObject": 8193,
      "i42314668": 8194,
      "hashed_index": 8195,
      "ext1625": 8196,
      "trunc242289": 8197,
      "shift239374": 8198,
      "_ZN19interpreter": 8199,
      "_ZN11opencascade6handleI25NCollection_BaseAllocatorED2Ev": 8200,
      "B5cxx11Ev": 8201,
      "B5cxx11EPKc": 8202,
      "IiSt4pairIKi": 8203,
      "closeConsole": 8204,
      "EE9use_countEv": 8205,
      "_pos_fix": 8206,
      "EPcPKcm": 8207,
      "insert6121179": 8208,
      "_ZN5boost13re_detail_50012perl_matcherIN9__gnu_cxx17__normal_iteratorIPKcNSt7__cxx1112basic_stringIcSt11char_traitsIcESaIcEEEEESaINS_9sub_matchISC_EEENS_12regex_traitsIcNS_16cpp_regex_traitsIcEEEEE18push": 8209,
      "IN5boost29regex_iterator_implementationIN9__gnu_cxx17__normal_iteratorIPKcNSt7__cxx1112basic_stringIcSt11char_traitsIcESaIcEEEEEcNS0_12regex_traitsIcNS0_16cpp_regex_traitsIcEEEEEELNS2_12_Lock_policyE2EE9use_countEv": 8210,
      "event": 8211,
      "ext770": 8212,
      "ext791": 8213,
      "ext185256": 8214,
      "15785019": 8215,
      "check_": 8216,
      "checkEmPKc": 8217,
      "trunc214254": 8218,
      "DataEv": 8219,
      "XadL_ZNS6_6OffsetEEEE": 8220,
      "XadL_ZNS6_4NameEEEEENS": 8221,
      "random": 8222,
      "BRepAdaptor_Curve": 8223,
      "6_EEENS_3mpl": 8224,
      "EN9__gnu_cxx17__normal_iteratorIPKcS": 8225,
      "_ptrINS0_20error_": 8226,
      "ePosition": 8227,
      "display_": 8228,
      "_ZN17BRepAdaptor_Curve": 8229,
      "promoted342377": 8230,
      "_ZNSt7__cxx1112basic_stringIcSt11char_traitsIcESaIcEE7_S_move": 8231,
      "initialization_and_": 8232,
      "_ZNSt6vectorIcSaIcEEixEm": 8233,
      "_ZN5QListI5QPairI7QStringS1_EE": 8234,
      "insert6981197": 8235,
      "replay_close": 8236,
      "insert4301242": 8237,
      "unpack_msgpack_pos_fix": 8238,
      "_hel": 8239,
      "shift186257": 8240,
      "readScreenData": 8241,
      "11_S_relocateEPS": 8242,
      "select1707": 8243,
      "St13_Rb_tree_nodeIS": 8244,
      "_server_": 8245,
      "20back_insert_iteratorINSt7__cxx1112basic_stringIcSt11char_traitsIcESaIcEEEENS_13match_results": 8246,
      "sTeam1": 8247,
      "aScore4d6": 8248,
      "distanceISt23_Rb_tree_const_iteratorIN5boost13re_detail_5007digraphIcEEEENSt15iterator_traitsIT_E15difference_typeES7_S7_St": 8249,
      "8_M_checkEmPKc": 8250,
      "ILb0": 8251,
      "find_": 8252,
      "h_lay": 8253,
      "pcodes": 8254,
      "_ZNSt14__shared_countILN9__gnu_cxx12_Lock_policyE2EED2Ev": 8255,
      "_EESaIS6_EEENS_3mpl": 8256,
      "eloop_register_": 8257,
      "eloop_unregister_read_sock": 8258,
      "_ZNSt12__shared_ptrIN5boost29regex_iterator_implementationIN9__gnu_cxx17__normal_iteratorIPKcNSt7__cxx1112basic_stringIcSt11char_traitsIcESaIcEEEEEcNS0_12regex_traitsIcNS0_16cpp_regex_traitsIcEEEEEELNS2_12_Lock_policyE2EED2Ev": 8259,
      "_ZN9__gnu_cxx13new_allocatorISt13_Rb_tree_node": 8260,
      "S2_S2_RS": 8261,
      "24_M_get_insert_unique_posERKS3_": 8262,
      "9_IdentityIS3_E": 8263,
      "074106": 8264,
      "4textEv": 8265,
      "63226": 8266,
      "6system": 8267,
      "7vector0IS": 8268,
      "9re_repeatESC_i": 8269,
      "9nth_lay": 8270,
      "B_SB_SB_SB_SB_SB_SB_SB_SB_SB_SB_SB_SB_SB_SB_SB_SB": 8271,
      "BlockSto": 8272,
      "E12internal": 8273,
      "FIRBlockSto": 8274,
      "F_EEEEENS_20regex_traits_wrapper": 8275,
      "S3_St9_IdentityIS3_E": 8276,
      "_len": 8277,
      "aList21_rec": 8278,
      "aWps": 8279,
      "bjectaS": 8280,
      "delete": 8281,
      "fptrunc": 8282,
      "formatterISt": 8283,
      "fcount_ptrINS0_20error_": 8284,
      "header_extension": 8285,
      "ral_constantIb": 8286,
      "alphabet": 8287,
      "alculatePosition": 8288,
      "register_send": 8289,
      "resizeEm": 8290,
      "var_opcodes": 8291,
      "destruction_0ii": 8292,
      "16TopoDS_TComp": 8293,
      "trunc189258": 8294,
      "shift296365": 8295,
      "shift340373": 8296,
      "17_M_realloc_insert": 8297,
      "14_S_do": 8298,
      "5beginEv": 8299,
      "18input_iterator_tag": 8300,
      "_Z41__static_": 8301,
      "EESF_E3": 8302,
      "EvN9__gnu_cxx17__normal_iteratorIP": 8303,
      "SaINS_9sub_matchISF_EEEEENS_20regex_traits_wrapper": 8304,
      "_response": 8305,
      "_single_repeatEmPKNS0_": 8306,
      "7QObjectE12internal": 8307,
      "_detail12refcount_ptrINS0_20error_": 8308,
      "IN9__gnu_cxx17__normal_iteratorIPKcS8_EESaINS_9sub_matchISF_EEEEENS_20regex_traits_wrapper": 8309,
      "_ZNK15QListWidgetItem4textEv": 8310,
      "_ZNK12QWeakPointerI": 8311,
      "_ZN2Py6ObjectaS": 8312,
      "_ZN5boost13re_detail_50021basic_regex_formatterISt": 8313,
      "INS_12regex_traitsIcNS_16cpp_regex_traitsIcEEEEEESF_E3": 8314,
      "INS_13match_resultsIN9__gnu_cxx17__normal_iteratorIPKcNSt7__cxx1112basic_stringIcSt11char_traitsIcESaIcEEEEESaINS_9sub_matchISD_EEEE": 8315,
      "_ZN11opencascade6handleI18BRepAdaptor_HCurve": 8316,
      "_St17integral_constantIb": 8317,
      "translate_direct": 8318,
      "_ZSt10__distanceISt23_Rb_tree_const_iteratorIN5boost13re_detail_5007digraphIcEEEENSt15iterator_traitsIT_E15difference_typeES7_S7_St": 8319,
      "_ZN5boost16exception_detail12refcount_ptrINS0_20error_": 8320,
      "_ZNKSt12__shared_ptrIN5boost29regex_iterator_implementationIN9__gnu_cxx17__normal_iteratorIPKcNSt7__cxx1112basic_stringIcSt11char_traitsIcESaIcEEEEEcNS0_12regex_traitsIcNS0_16cpp_regex_traitsIcEEEEEELNS2_12_Lock_policyE2EE9use_countEv": 8321,
      "_ZNKSt8functionIF": 8322,
      "St4lessIS3_ESaIS3_EE24_M_get_insert_unique_posERKS3_": 8323,
      "_ZN2Py4NoneEv": 8324,
      "_ZN12Falltergeist5Event8KeyboardC2ERKS1_": 8325,
      "_ZNSt8_Rb_treeIN5boost13re_detail_5007digraphIcEES3_St9_IdentityIS3_E": 8326,
      "_ZN12Falltergeist2UI12TextAreaList21_rec": 8327,
      "exit282_crit_edge": 8328,
      "_ZN19interpreter_dsp_aux": 8329,
      "B5cxx11EPKcS3_": 8330,
      "_ZN5boost13re_detail_50012perl_matcherIN9__gnu_cxx17__normal_iteratorIPKcNSt7__cxx1112basic_stringIcSt11char_traitsIcESaIcEEEEESaINS_9sub_matchISC_EEENS_12regex_traitsIcNS_16cpp_regex_traitsIcEEEEE18push_single_repeatEmPKNS0_": 8331,
      "XadL_ZNS6_4NameEEEEENS4_13CStringHasherES": 8332,
      "_ZN17BRepAdaptor_CurveD2Ev": 8333,
      "_ZNSt7__cxx1112basic_stringIcSt11char_traitsIcESaIcEE7_S_moveEPcPKcm": 8334,
      "initialization_and_destruction_0ii": 8335,
      "unpack_msgpack_pos_fixnum": 8336,
      "20back_insert_iteratorINSt7__cxx1112basic_stringIcSt11char_traitsIcESaIcEEEENS_13match_resultsIN9__gnu_cxx17__normal_iteratorIPKcS8_EESaINS_9sub_matchISF_EEEEENS_20regex_traits_wrapper": 8337,
      "aScore4d6sTeam1": 8338,
      "_EESaIS6_EEENS_3mpl7vector0IS": 8339,
      "9nth_layerIL": 8340,
      "FIRBlockStore": 8341,
      "alculatePositionsEv": 8342,
      "_Z41__static_initialization_and_destruction_0ii": 8343,
      "7QObjectE12internalDataEv": 8344,
      "_ZNK12QWeakPointerI7QObjectE12internalDataEv": 8345,
      "_ZN2Py6ObjectaSERKS0_": 8346,
[...]
